<unk>	0
<pad>	0
<bos>	0
<eos>	0
<mask>	0
sp	-0
em	-1
emsp	-2
;&	-3
▁【	-4
桔梗	-5
存在	-6
▁|	-7
丹陀	-8
巴尔	-9
时空	-10
巴尔丹陀	-11
▁&	-12
▁神	-13
巫女	-14
姬神	-15
▁[	-16
▁阿	-17
思维	-18
意志	-19
祂仆	-20
▁桔梗	-21
蕾祂仆	-22
吾神	-23
姆特	-24
之神	-25
▁若	-26
纱织	-27
这是	-28
克蕾祂仆	-29
仁神	-30
关系	-31
天界	-32
时代	-33
--	-34
▁巴尔丹陀	-35
自然	-36
▁故	-37
▁第	-38
不能	-39
德鹭	-40
比亚	-41
的神	-42
达姆	-43
德鹭达姆	-44
▁那	-45
如此	-46
道义	-47
▁]	-48
纪元	-49
▁奥	-50
不可	-51
异星	-52
戈拉	-53
琳斯	-54
罕钵	-55
▁(	-56
世界	-57
先知	-58
利亚	-59
大名	-60
比尔	-61
比亚纶	-62
米利亚	-63
人类	-64
神官	-65
▁吾	-66
乌拉	-67
告诫	-68
实在	-69
智慧	-70
神的	-71
存在的	-72
丹驮	-73
吡蒂	-74
职务	-75
辨识	-76
吡蒂丹驮	-77
▁克蕾祂仆	-78
▁一	-79
上帝	-80
使得	-81
德莎	-82
知识	-83
魔法	-84
喜比尔	-85
德莎曼	-86
丹姆	-87
因此	-88
性质	-89
章节	-90
陀沃	-91
丹姆尔	-92
乌拉德	-93
罕钵拉	-94
阿姆特	-95
▁阿姆特	-96
▁其	-97
三愈	-98
人间	-99
你们	-100
吾等	-101
拟态	-102
邸爱	-103
三愈罪	-104
琳斯达	-105
邸爱琳斯达	-106
▁↓	-107
一切	-108
就是	-109
摩诃	-110
是神	-111
母亲	-112
灵魂	-113
众神	-114
坦言	-115
拉玛	-116
祭祀	-117
▁姬神	-118
▁德鹭达姆	-119
▁在	-120
于此	-121
偶遇	-122
合法	-123
奥利	-124
女子	-125
意识	-126
政治	-127
整体	-128
本质	-129
祂即	-130
神姬	-131
神道	-132
这人	-133
都灵	-134
▁仁神	-135
▁吾神	-136
戈拉姆	-137
旧神官	-138
▁米利亚	-139
之时	-140
事业	-141
人神	-142
因果	-143
应允	-144
汝等	-145
滑跪	-146
父亲	-147
真实	-148
神性	-149
神社	-150
芙埵	-151
贵族	-152
逻辑	-153
▁上帝	-154
▁巫女	-155
▁神姬	-156
萨芙埵	-157
▁是	-158
不是	-159
不知	-160
不见	-161
何者	-162
原则	-163
叔友	-164
哈鹭	-165
妥协	-166
尺度	-167
正法	-168
现象	-169
男子	-170
神人	-171
神胜	-172
范畴	-173
达布	-174
哈鹭芙	-175
纪元桔梗	-176
▁邸爱琳斯达	-177
▁以	-178
▁诸	-179
世间	-180
使其	-181
信任	-182
信息	-183
喀德	-184
喃特	-185
政府	-186
海盗	-187
认知	-188
路径	-189
非是	-190
▁一时	-191
▁这是	-192
之桔梗	-193
桔梗之	-194
比拉玛	-195
达布斯	-196
阿陀沃	-197
▁若这人	-198
▁吡蒂丹驮	-199
▁奥德莎曼	-200
▁仁	-201
▁太	-202
▁如	-203
▁此	-204
一个	-205
中的	-206
丽斯	-207
人之	-208
古论	-209
同僚	-210
哆拉	-211
回归	-212
大雄	-213
子嗣	-214
孩子	-215
家族	-216
就要	-217
岂能	-218
干涉	-219
德之	-220
战争	-221
教堂	-222
概念	-223
正义	-224
汝之	-225
法案	-226
线性	-227
织质	-228
虚线	-229
通约	-230
非神	-231
古论巴	-232
喀德玛	-233
奥利巴	-234
意志的	-235
菲丽斯	-236
▁三	-237
▁再	-238
▁这	-239
人的	-240
仸朗	-241
会议	-242
便是	-243
具备	-244
决策	-245
古澜	-246
召者	-247
国民	-248
夜姬	-249
女性	-250
定义	-251
对方	-252
封印	-253
恩典	-254
拉罗	-255
教廷	-256
无有	-257
未有	-258
比修	-259
没有	-260
神体	-261
秩序	-262
精神	-263
遇到	-264
难埵	-265
非非	-266
▁纱织	-267
古仸朗	-268
女子力	-269
瓦拉罗	-270
辉夜姬	-271
▁乌拉德	-272
▁┇	-273
▁不	-274
▁善	-275
▁有	-276
世人	-277
为了	-278
传道	-279
伽薄	-280
修女	-281
几者	-282
化作	-283
国王	-284
塔斯	-285
头颅	-286
姿态	-287
将是	-288
平等	-289
撒戈	-290
无法	-291
星云	-292
是否	-293
未来	-294
欣喜	-295
殴打	-296
游玩	-297
演绎	-298
父母	-299
理由	-300
皆是	-301
税务	-302
空间	-303
等于	-304
维持	-305
自己	-306
观察	-307
记者	-308
论证	-309
诸般	-310
负责	-311
之时空	-312
古澜嘎	-313
异星人	-314
戈拉撒	-315
时空之	-316
神胜者	-317
诸大名	-318
赛塔斯	-319
非线性	-320
魔法使	-321
----	-322
▁阿难埵	-323
奥德莎曼	-324
撒戈伽薄	-325
阿姆特之	-326
AX	-327
▁—	-328
▁人	-329
▁哒	-330
▁无	-331
▁然	-332
▁花	-333
临在	-334
之母	-335
之间	-336
亦无	-337
农户	-338
凡是	-339
即是	-340
厌恶	-341
告诉	-342
奴隶	-343
学派	-344
孩童	-345
它们	-346
对应	-347
必然	-348
愈是	-349
戏谑	-350
战国	-351
救赎	-352
文明	-353
时辰	-354
是谁	-355
智者	-356
服饰	-357
权柄	-358
母之	-359
琳蒂	-360
神圣	-361
禀赋	-362
结合	-363
维度	-364
蒂奥	-365
行业	-366
计划	-367
谁又	-368
转换	-369
过程	-370
通讯	-371
雌雄	-372
青年	-373
顿觉	-374
驱逐	-375
▁因此	-376
▁那人	-377
之神圣	-378
合法性	-379
灵魂的	-380
琳蒂室	-381
级道义	-382
自己的	-383
艾琳斯	-384
▁比亚纶	-385
▁比拉玛	-386
▁阿陀沃	-387
古澜嘎姆	-388
纱织巫女	-389
),	-390
):	-391
lo	-392
▁于	-393
▁萨	-394
▁非	-395
▁魔	-396
一致	-397
三者	-398
上的	-399
不以	-400
不同	-401
主权	-402
之法	-403
事态	-404
以此	-405
企鹅	-406
伦理	-407
你的	-408
佩室	-409
依据	-410
分支	-411
启示	-412
告释	-413
喇巴	-414
土壤	-415
在大	-416
坦陀	-417
基座	-418
基督	-419
塔玛	-420
壮大	-421
婆乳	-422
家庭	-423
封闭	-424
工匠	-425
差使	-426
座是	-427
感叹	-428
感慨	-429
感知	-430
慨爱	-431
成就	-432
成立	-433
技艺	-434
措辞	-435
携带	-436
撰写	-437
支病	-438
敬畏	-439
斯哒	-440
无关	-441
无量	-442
时间	-443
权能	-444
流露	-445
清晰	-446
由此	-447
男性	-448
的爱	-449
直言	-450
相对	-451
神之	-452
神界	-453
笑曰	-454
管辖	-455
系统	-456
编纂	-457
美斯	-458
者何	-459
舅爷	-460
船员	-461
若有	-462
营救	-463
虚空	-464
行动	-465
记忆	-466
诅咒	-467
诞临	-468
诸神	-469
还原	-470
通过	-471
遗迹	-472
那是	-473
采访	-474
门徒	-475
间践	-476
降临	-477
雪之	-478
非正	-479
领域	-480
loy	-481
▁本质	-482
▁现象	-483
▁纪元	-484
农户女	-485
即如此	-486
却不见	-487
坦陀罗	-488
存在之	-489
斯佩室	-490
比修斯	-491
的智慧	-492
祭祀者	-493
蒙召者	-494
谛婆乳	-495
赛美斯	-496
▁喜比尔	-497
▁旧神官	-498
▁罕钵拉	-499
▁阿喃特	-500
奥菲丽斯	-501
慨爱斯哒	-502
瓦坦陀罗	-503
Fn	-504
NE	-505
▁O	-506
▁┷	-507
▁■	-508
▁传	-509
▁由	-510
▁耶	-511
▁超	-512
▁达	-513
一刻	-514
之性	-515
之难	-516
事项	-517
交涉	-518
亦可	-519
亦是	-520
什么	-521
以撒	-522
传播	-523
余等	-524
作者	-525
便不	-526
信仰	-527
元素	-528
全能	-529
公共	-530
兰达	-531
关联	-532
具感	-533
再由	-534
决定	-535
利姆	-536
利札	-537
利祂	-538
到的	-539
动荡	-540
却是	-541
发生	-542
发觉	-543
可能	-544
吃食	-545
听从	-546
吾奶	-547
告辞	-548
咔德	-549
哀叹	-550
喀西	-551
喃陀	-552
嘎忑	-553
国度	-554
圣灵	-555
大众	-556
奇迹	-557
如同	-558
姨奶	-559
它在	-560
安那	-561
布拉	-562
帮扶	-563
序列	-564
弥漫	-565
徘徊	-566
御风	-567
德性	-568
必要	-569
思想	-570
惊悚	-571
感质	-572
戈撒	-573
成长	-574
或巴	-575
抉择	-576
抵达	-577
措施	-578
攀谈	-579
政策	-580
文化	-581
料理	-582
时期	-583
普世	-584
普罗	-585
望向	-586
村落	-587
格纳	-588
概率	-589
此是	-590
毁灭	-591
水母	-592
法则	-593
波陀	-594
派遣	-595
流光	-596
灵魄	-597
爱意	-598
特曼	-599
特门	-600
狩人	-601
玛乌	-602
现实	-603
生命	-604
生者	-605
着付	-606
知其	-607
知悉	-608
社群	-609
神力	-610
神迹	-611
福音	-612
端倪	-613
符肇	-614
米纳	-615
纯粹	-616
纷争	-617
缔结	-618
胜神	-619
航行	-620
良人	-621
英雄	-622
裹尸	-623
见之	-624
规律	-625
言释	-626
认为	-627
讯问	-628
诸人	-629
贱民	-630
赛斯	-631
踏影	-632
辞藻	-633
达夫	-634
追踪	-635
遍布	-636
部分	-637
部委	-638
金融	-639
需要	-640
非等	-641
龙蛋	-642
▁--	-643
▁Fn	-644
▁一个	-645
▁修女	-646
▁太易	-647
▁存在	-648
▁故此	-649
▁神道	-650
二时辰	-651
喀哆拉	-652
在大街	-653
塔利祂	-654
娃喀西	-655
安那其	-656
希以撒	-657
戈撒钨	-658
拉嘎忑	-659
明神体	-660
是自然	-661
是谁的	-662
格纳宏	-663
玛咔德	-664
知识者	-665
神支病	-666
莎塔玛	-667
莎特曼	-668
萨喃陀	-669
这行业	-670
阿喃特	-671
马达夫	-672
▁ONE	-673
▁仁吾神	-674
▁农户女	-675
▁存在的	-676
古论巴姆	-677
古论巴达	-678
对方相对	-679
或巴利札	-680
是存在的	-681
普罗大众	-682
桔梗姬神	-683
玛乌丹陀	-684
蒂奥米纳	-685
▁撒戈伽薄	-686
和巴尔丹陀	-687
塔利祂或巴利札	-688
(?	-689
EW	-690
▁/	-691
▁>	-692
▁A	-693
▁·	-694
▁↑	-695
▁天	-696
▁对	-697
▁巴	-698
▁瓦	-699
▁真	-700
▁自	-701
▁至	-702
▁路	-703
一体	-704
一方	-705
一种	-706
三神	-707
不允	-708
不再	-709
不对	-710
与吾	-711
与此	-712
世纪	-713
之不	-714
之女	-715
之爱	-716
也是	-717
习艺	-718
事由	-719
二神	-720
亦或	-721
亦然	-722
人是	-723
人格	-724
代表	-725
以人	-726
以至	-727
任何	-728
休假	-729
会谈	-730
伴侣	-731
何不	-732
何为	-733
何故	-734
何由	-735
倾慕	-736
光谱	-737
克帝	-738
六姬	-739
其神	-740
决断	-741
凋零	-742
刀在	-743
刀斧	-744
判定	-745
区块	-746
区间	-747
卜钵	-748
即可	-749
双颅	-750
发明	-751
号令	-752
啦波	-753
喀玛	-754
圣杯	-755
圣职	-756
圣血	-757
圣骸	-758
太易	-759
妖头	-760
审判	-761
寂灭	-762
寓意	-763
对的	-764
导弹	-765
展示	-766
属于	-767
左侧	-768
市场	-769
幸福	-770
庇护	-771
床榻	-772
府邸	-773
彼岸	-774
得以	-775
德品	-776
思绪	-777
恶性	-778
成功	-779
战略	-780
扁面	-781
执事	-782
技能	-783
折叠	-784
抚养	-785
报刊	-786
挚友	-787
捕获	-788
摄政	-789
摩筏	-790
支配	-791
放行	-792
斯之	-793
是何	-794
是吾	-795
是然	-796
有此	-797
未可	-798
未曾	-799
未知	-800
架构	-801
歌剧	-802
此时	-803
死者	-804
比例	-805
毗塔	-806
永恒	-807
汇报	-808
沙滩	-809
法王	-810
活动	-811
海浪	-812
混迹	-813
爱者	-814
珊瑚	-815
理解	-816
生到	-817
甲屑	-818
知此	-819
社民	-820
祀原	-821
神就	-822
祭品	-823
种子	-824
稳定	-825
穿梭	-826
答案	-827
类族	-828
终焉	-829
经过	-830
维护	-831
罪恶	-832
耦矩	-833
胶卷	-834
脚踝	-835
自在	-836
致电	-837
色彩	-838
节点	-839
花海	-840
萨黑	-841
行径	-842
询讯	-843
询问	-844
诸等	-845
贵妇	-846
赐福	-847
越是	-848
这即	-849
途中	-850
道经	-851
遭遇	-852
那里	-853
门派	-854
问题	-855
阴阳	-856
陀芙	-857
非不	-858
音姬	-859
预定	-860
(?)	-861
▁——	-862
▁三神	-863
▁先知	-864
▁凡是	-865
▁大雄	-866
▁异星	-867
▁摩诃	-868
▁耶露	-869
▁花魁	-870
▁门徒	-871
▁青年	-872
▁魔晶	-873
世界诞	-874
义人的	-875
习艺者	-876
先知和	-877
关系的	-878
双颅龙	-879
叔友之	-880
喀啦波	-881
喀拉玛	-882
嗒喀玛	-883
回归差	-884
实在者	-885
巴尔特	-886
恶男子	-887
意志和	-888
扁面蛸	-889
托利姆	-890
摄政王	-891
时代之	-892
未有不	-893
特门那	-894
的国民	-895
神企鹅	-896
萨波陀	-897
虚线升	-898
虚线降	-899
裹尸布	-900
超时空	-901
那工匠	-902
都灵的	-903
阿萨黑	-904
魔法师	-905
▁上帝言	-906
▁丹姆尔	-907
▁哈鹭芙	-908
▁喀德玛	-909
▁萨芙埵	-910
▁辉夜姬	-911
三愈罪之	-912
临在具感	-913
从世界诞	-914
嘚蕾祂仆	-915
因果关系	-916
在大街中	-917
思维演绎	-918
比亚纶之	-919
毗塔卜钵	-920
生到凋零	-921
萨拉嘎忑	-922
间践干涉	-923
魔法祀原	-924
▁上帝告诉	-925
▁哒琳蒂室	-926
▁奥菲丽斯	-927
▁神姬桔梗	-928
▁纪元桔梗	-929
巴尔丹陀和	-930
桔梗之姬神	-931
这行业将是	-932
古澜嘎姆法案	-933
从世界诞生到凋零	-934
AE	-935
AF	-936
Hy	-937
SC	-938
er	-939
▁)	-940
▁:	-941
▁±	-942
▁与	-943
▁两	-944
▁二	-945
▁古	-946
▁可	-947
▁周	-948
▁它	-949
▁星	-950
▁核	-951
▁正	-952
▁每	-953
▁灵	-954
▁秩	-955
▁肇	-956
▁谁	-957
▁雇	-958
▁韦	-959
不在	-960
不应	-961
不等	-962
不良	-963
临近	-964
为其	-965
举起	-966
乃至	-967
义理	-968
义者	-969
之位	-970
之层	-971
之心	-972
之质	-973
之身	-974
之镜	-975
事者	-976
事迹	-977
于世	-978
亦非	-979
亵渎	-980
人啊	-981
人有	-982
仁吾	-983
代人	-984
代价	-985
价值	-986
体系	-987
何处	-988
何有	-989
作战	-990
作用	-991
便以	-992
便要	-993
信道	-994
借宿	-995
做客	-996
光速	-997
克轮	-998
全量	-999
公民	-1000
兰卡	-1001
兰摩	-1002
兵器	-1003
内容	-1004
再临	-1005
制度	-1006
前后	-1007
副手	-1008
劝解	-1009
加持	-1010
动态	-1011
包含	-1012
十二	-1013
协同	-1014
协调	-1015
危机	-1016
却不	-1017
压制	-1018
原罪	-1019
去之	-1020
去的	-1021
双方	-1022
变体	-1023
变形	-1024
变迁	-1025
台阶	-1026
右侧	-1027
合作	-1028
君王	-1029
吡那	-1030
吸引	-1031
吾母	-1032
吾皆	-1033
味的	-1034
命运	-1035
品的	-1036
哆拿	-1037
哒啦	-1038
哲理	-1039
喃子	-1040
善恶	-1041
善趋	-1042
嗅探	-1043
嘎拉	-1044
回忆	-1045
圣徒	-1046
圣意	-1047
圣胎	-1048
坦诚	-1049
基于	-1050
复杂	-1051
太空	-1052
奇异	-1053
女鬼	-1054
如何	-1055
妇人	-1056
委托	-1057
婚姻	-1058
孕育	-1059
存活	-1060
学术	-1061
宇宙	-1062
安全	-1063
安抚	-1064
定域	-1065
实体	-1066
实践	-1067
实验	-1068
审核	-1069
容器	-1070
察觉	-1071
察阅	-1072
对标	-1073
对此	-1074
将它	-1075
尊严	-1076
少女	-1077
就成	-1078
尴尬	-1079
尽数	-1080
居住	-1081
展现	-1082
属性	-1083
屠杀	-1084
工业	-1085
师之	-1086
希翼	-1087
带来	-1088
平庸	-1089
并非	-1090
幻想	-1091
应用	-1092
应许	-1093
座部	-1094
庸碌	-1095
徒贤	-1096
得至	-1097
德我	-1098
必有	-1099
忏悔	-1100
思议	-1101
思辨	-1102
性之	-1103
恋爱	-1104
恶魔	-1105
感受	-1106
懵懂	-1107
戈喇	-1108
成本	-1109
我的	-1110
托斯	-1111
执法	-1112
承担	-1113
承载	-1114
投靠	-1115
报告	-1116
拉姆	-1117
拉巴	-1118
拿咕	-1119
指挥	-1120
探询	-1121
接替	-1122
提供	-1123
收缴	-1124
故杀	-1125
敌友	-1126
教学	-1127
数参	-1128
文件	-1129
旋律	-1130
无二	-1131
无数	-1132
时由	-1133
是内	-1134
是外	-1135
是能	-1136
是非	-1137
普及	-1138
智识	-1139
暂行	-1140
暧昧	-1141
望着	-1142
本源	-1143
本能	-1144
杀戮	-1145
条件	-1146
条例	-1147
构成	-1148
果因	-1149
标签	-1150
楽爱	-1151
模型	-1152
残酷	-1153
毋以	-1154
母子	-1155
汝斯	-1156
法制	-1157
注意	-1158
浩瀚	-1159
海面	-1160
消亡	-1161
溯源	-1162
滑者	-1163
演行	-1164
然的	-1165
爆炸	-1166
玄姬	-1167
瑰丽	-1168
甄别	-1169
生物	-1170
界之	-1171
留存	-1172
的果	-1173
的此	-1174
的自	-1175
皆有	-1176
皆非	-1177
相通	-1178
眼睛	-1179
睹之	-1180
瞬间	-1181
矢量	-1182
知晓	-1183
研究	-1184
研讨	-1185
示录	-1186
礼仪	-1187
祂志	-1188
神代	-1189
神境	-1190
神爱	-1191
神眼	-1192
科技	-1193
称谓	-1194
稀少	-1195
窗子	-1196
窗户	-1197
窘迫	-1198
竟无	-1199
筏姆	-1200
策划	-1201
签证	-1202
管道	-1203
精英	-1204
纪录	-1205
纪检	-1206
组成	-1207
绝对	-1208
续道	-1209
续问	-1210
编制	-1211
编撰	-1212
置有	-1213
羞辱	-1214
者乎	-1215
联系	-1216
胜者	-1217
船队	-1218
良善	-1219
若以	-1220
若无	-1221
若要	-1222
营业	-1223
虔问	-1224
裁决	-1225
裙女	-1226
裙面	-1227
规训	-1228
认同	-1229
讯质	-1230
记录	-1231
诸法	-1232
调任	-1233
谛观	-1234
贞洁	-1235
责任	-1236
贤男	-1237
败坏	-1238
赖忒	-1239
赛雅	-1240
超十	-1241
轰炸	-1242
辨知	-1243
过去	-1244
运作	-1245
述释	-1246
追逐	-1247
适宜	-1248
途径	-1249
道书	-1250
道德	-1251
道的	-1252
道神	-1253
部门	-1254
重生	-1255
链条	-1256
错乱	-1257
错的	-1258
错误	-1259
锚定	-1260
镇定	-1261
门前	-1262
阴茎	-1263
隔离	-1264
雨夜	-1265
震撼	-1266
非以	-1267
非由	-1268
音神	-1269
顺应	-1270
预知	-1271
飞船	-1272
鬼妖	-1273
Hyp	-1274
erP	-1275
▁—>	-1276
▁乌拉	-1277
▁于此	-1278
▁仁吾	-1279
▁众神	-1280
▁何者	-1281
▁天界	-1282
▁对于	-1283
▁布拉	-1284
▁意志	-1285
▁意识	-1286
▁汝等	-1287
▁神官	-1288
▁第一	-1289
▁第三	-1290
▁第二	-1291
▁第五	-1292
▁第六	-1293
▁第四	-1294
▁舅爷	-1295
▁若与	-1296
▁记者	-1297
▁雇佣	-1298
》--	-1299
一刻是	-1300
不能直	-1301
世界之	-1302
之奴隶	-1303
之思维	-1304
之政治	-1305
之权柄	-1306
之海盗	-1307
了神的	-1308
于神的	-1309
人神之	-1310
人类中	-1311
仁吾神	-1312
众神的	-1313
你的神	-1314
信息之	-1315
假范畴	-1316
元素键	-1317
吡那普	-1318
告诫之	-1319
和大雄	-1320
哒喇巴	-1321
天界神	-1322
奇迹鱼	-1323
奥赛斯	-1324
孩子的	-1325
它的神	-1326
定义层	-1327
德世界	-1328
德之海	-1329
必喃子	-1330
必然的	-1331
支配者	-1332
收到的	-1333
新神官	-1334
无量的	-1335
既如此	-1336
昧哒啦	-1337
是整体	-1338
是神者	-1339
本质者	-1340
格拉巴	-1341
桔梗曰	-1342
此几者	-1343
此智慧	-1344
比尔斯	-1345
汝之神	-1346
现象者	-1347
的号令	-1348
的存在	-1349
的未来	-1350
的灵魂	-1351
的计划	-1352
的那里	-1353
相通整	-1354
神姬之	-1355
穿梭机	-1356
筏拿咕	-1357
索比亚	-1358
织质之	-1359
者稀少	-1360
能辨识	-1361
若置有	-1362
苯哆拉	-1363
莫不是	-1364
菲托斯	-1365
萨克帝	-1366
讯何由	-1367
谁就要	-1368
赛哆拿	-1369
赛雅西	-1370
那人的	-1371
那就是	-1372
都兰达	-1373
驱逐时	-1374
默示录	-1375
ploy	-1376
▁--《	-1377
▁乌拉莎	-1378
▁先知斯	-1379
▁双颅龙	-1380
▁哒喇巴	-1381
▁嗒喀玛	-1382
▁有海盗	-1383
▁桔梗之	-1384
▁桔梗诫	-1385
▁比修斯	-1386
▁蒙召者	-1387
▁达布斯	-1388
▁达赖忒	-1389
▁那人便	-1390
▁马达夫	-1391
不可思议	-1392
之丹姆尔	-1393
于奥利巴	-1394
人格之神	-1395
你们必要	-1396
克轮比修	-1397
去人类中	-1398
和阿陀沃	-1399
哒琳蒂室	-1400
喀德玛之	-1401
奥利巴埵	-1402
奥利巴筏	-1403
奥利摩筏	-1404
拟态时空	-1405
旧神官之	-1406
玛咔德的	-1407
类族隔离	-1408
精神错乱	-1409
纯粹神性	-1410
自然演绎	-1411
质相通整	-1412
逻辑数参	-1413
遇到同僚	-1414
雌雄结合	-1415
▁姬神桔梗	-1416
▁玛乌丹陀	-1417
义人的头颅	-1418
殴打古仸朗	-1419
没有一刻是	-1420
稳定元素键	-1421
雨夜驱逐时	-1422
HyperP	-1423
▁有海盗船员	-1424
▁花魁米利亚	-1425
▁上帝告诉世人	-1426
纱织和巴尔丹陀	-1427
▁若这人在大街中	-1428
HyperPloy	-1429
);	-1430
)。	-1431
-→	-1432
;(	-1433
;↓	-1434
AS	-1435
FC	-1436
ce	-1437
li	-1438
▁S	-1439
▁且	-1440
▁乌	-1441
▁令	-1442
▁反	-1443
▁同	-1444
▁后	-1445
▁唯	-1446
▁奶	-1447
▁姬	-1448
▁定	-1449
▁室	-1450
▁寓	-1451
▁就	-1452
▁库	-1453
▁弥	-1454
▁当	-1455
▁忒	-1456
▁恰	-1457
▁想	-1458
▁愈	-1459
▁我	-1460
▁或	-1461
▁战	-1462
▁拉	-1463
▁数	-1464
▁最	-1465
▁果	-1466
▁根	-1467
▁着	-1468
▁种	-1469
▁符	-1470
▁索	-1471
▁预	-1472
一代	-1473
一战	-1474
一端	-1475
一般	-1476
七维	-1477
不作	-1478
不具	-1479
不堕	-1480
不得	-1481
不缴	-1482
不触	-1483
不识	-1484
与其	-1485
与地	-1486
与对	-1487
与文	-1488
世神	-1489
世者	-1490
业必	-1491
中人	-1492
中央	-1493
中窥	-1494
中草	-1495
中间	-1496
临界	-1497
临走	-1498
为何	-1499
Ax	-1500
▁序	-1501
▁确	-1502
▁耦	-1503
▁觉	-1504
▁遇	-1505
不愿	-1506
久时	-1507
之业	-1508
之主	-1509
之人	-1510
之任	-1511
之余	-1512
之劫	-1513
之协	-1514
之友	-1515
之后	-1516
之国	-1517
之场	-1518
之失	-1519
之姐	-1520
之席	-1521
之志	-1522
之情	-1523
之戾	-1524
之流	-1525
之眼	-1526
之经	-1527
之者	-1528
之色	-1529
之询	-1530
之门	-1531
之魔	-1532
乌坦	-1533
买卖	-1534
乳婆	-1535
乳曲	-1536
争议	-1537
事务	-1538
事宜	-1539
事实	-1540
二道	-1541
于你	-1542
互相	-1543
五维	-1544
亚波	-1545
亚阿	-1546
亡于	-1547
交媾	-1548
亦伪	-1549
亦自	-1550
人爱	-1551
人者	-1552
人质	-1553
人闻	-1554
人难	-1555
人鱼	-1556
仁道	-1557
从而	-1558
代以	-1559
以千	-1560
仿佛	-1561
会饮	-1562
伟大	-1563
传说	-1564
伪暴	-1565
佐辅	-1566
体如	-1567
何以	-1568
何在	-1569
何焉	-1570
何被	-1571
你在	-1572
使长	-1573
依附	-1574
侧向	-1575
便如	-1576
便歹	-1577
便由	-1578
便缚	-1579
便言	-1580
信解	-1581
信讯	-1582
修习	-1583
修炼	-1584
光音	-1585
入赘	-1586
全知	-1587
公系	-1588
六维	-1589
兰哒	-1590
兰姆	-1591
关照	-1592
其中	-1593
其余	-1594
其有	-1595
其皮	-1596
其频	-1597
具己	-1598
具神	-1599
具象	-1600
养育	-1601
再以	-1602
再度	-1603
再组	-1604
再转	-1605
冲突	-1606
冷汗	-1607
减少	-1608
凝视	-1609
出现	-1610
刀劈	-1611
分配	-1612
则要	-1613
判别	-1614
判类	-1615
利巴	-1616
到了	-1617
刻录	-1618
前定	-1619
剩余	-1620
力如	-1621
劝岂	-1622
劝诫	-1623
办事	-1624
功效	-1625
功而	-1626
劳务	-1627
勃然	-1628
匮乏	-1629
匿避	-1630
十由	-1631
单字	-1632
占卜	-1633
印象	-1634
即会	-1635
即刻	-1636
即此	-1637
即毋	-1638
却如	-1639
却已	-1640
却非	-1641
原是	-1642
原设	-1643
参数	-1644
双极	-1645
双者	-1646
反向	-1647
发法	-1648
发狂	-1649
发现	-1650
取代	-1651
取值	-1652
受限	-1653
变换	-1654
叙言	-1655
口号	-1656
古塔	-1657
可信	-1658
可在	-1659
可携	-1660
可知	-1661
史诗	-1662
吉祥	-1663
同性	-1664
同时	-1665
后定	-1666
后背	-1667
君子	-1668
吞噬	-1669
听闻	-1670
吾可	-1671
吾愿	-1672
吾狩	-1673
告徒	-1674
呼吸	-1675
命者	-1676
咀嚼	-1677
和华	-1678
和长	-1679
咸觉	-1680
哀伤	-1681
哀对	-1682
哉米	-1683
哭声	-1684
哲神	-1685
唯那	-1686
商讨	-1687
喃婆	-1688
善事	-1689
善人	-1690
善活	-1691
善罪	-1692
喜鹊	-1693
喻石	-1694
嘲讽	-1695
回响	-1696
回头	-1697
回收	-1698
回溯	-1699
因为	-1700
图中	-1701
图纹	-1702
圣源	-1703
圣袍	-1704
在人	-1705
在此	-1706
坛设	-1707
垄断	-1708
埋怨	-1709
基琉	-1710
外星	-1711
外的	-1712
多拉	-1713
夜的	-1714
大之	-1715
大天	-1716
大将	-1717
大怒	-1718
天地	-1719
天如	-1720
天的	-1721
天门	-1722
太初	-1723
夫妻	-1724
失误	-1725
奇怪	-1726
奇遇	-1727
奇问	-1728
契机	-1729
奢侈	-1730
奥书	-1731
奥美	-1732
女之	-1733
女着	-1734
如其	-1735
如婴	-1736
如山	-1737
如己	-1738
如烛	-1739
,	-1740
▁	-1741
;	-1742
之	-1743
神	-1744
的	-1745
是	-1746
者	-1747
人	-1748
p	-1749
e	-1750
s	-1751
&	-1752
m	-1753
不	-1754
时	-1755
在	-1756
此	-1757
非	-1758
吾	-1759
【	-1760
】	-1761
性	-1762
。	-1763
以	-1764
拉	-1765
于	-1766
德	-1767
中	-1768
有	-1769
道	-1770
桔	-1771
梗	-1772
知	-1773
姆	-1774
如	-1775
法	-1776
斯	-1777
(	-1778
)	-1779
其	-1780
能	-1781
女	-1782
无	-1783
存	-1784
尔	-1785
姬	-1786
那	-1787
巴	-1788
丹	-1789
和	-1790
子	-1791
陀	-1792
体	-1793
达	-1794
一	-1795
阿	-1796
可	-1797
爱	-1798
比	-1799
然	-1800
若	-1801
故	-1802
质	-1803
空	-1804
这	-1805
:	-1806
等	-1807
与	-1808
义	-1809
即	-1810
言	-1811
|	-1812
意	-1813
世	-1814
大	-1815
诸	-1816
自	-1817
-	-1818
事	-1819
何	-1820
界	-1821
间	-1822
特	-1823
维	-1824
亦	-1825
由	-1826
圣	-1827
奥	-1828
思	-1829
天	-1830
对	-1831
母	-1832
识	-1833
利	-1834
祂	-1835
实	-1836
代	-1837
作	-1838
使	-1839
再	-1840
或	-1841
系	-1842
定	-1843
成	-1844
就	-1845
至	-1846
灵	-1847
亚	-1848
便	-1849
告	-1850
星	-1851
汝	-1852
同	-1853
见	-1854
仁	-1855
巫	-1856
应	-1857
正	-1858
胜	-1859
三	-1860
得	-1861
玛	-1862
信	-1863
却	-1864
因	-1865
态	-1866
战	-1867
皆	-1868
业	-1869
觉	-1870
为	-1871
必	-1872
智	-1873
理	-1874
萨	-1875
通	-1876
遇	-1877
关	-1878
未	-1879
上	-1880
行	-1881
务	-1882
感	-1883
戈	-1884
摩	-1885
相	-1886
纪	-1887
织	-1888
[	-1889
]	-1890
临	-1891
志	-1892
要	-1893
讯	-1894
论	-1895
父	-1896
男	-1897
门	-1898
蒂	-1899
恶	-1900
政	-1901
海	-1902
克	-1903
合	-1904
喜	-1905
国	-1906
辨	-1907
鹭	-1908
·	-1909
仆	-1910
古	-1911
异	-1912
民	-1913
生	-1914
被	-1915
乎	-1916
善	-1917
愈	-1918
明	-1919
权	-1920
类	-1921
问	-1922
你	-1923
元	-1924
度	-1925
我	-1926
蕾	-1927
书	-1928
具	-1929
力	-1930
动	-1931
将	-1932
果	-1933
现	-1934
难	-1935
原	-1936
后	-1937
它	-1938
纱	-1939
光	-1940
则	-1941
喀	-1942
己	-1943
教	-1944
流	-1945
罗	-1946
象	-1947
乌	-1948
亲	-1949
奇	-1950
本	-1951
琳	-1952
着	-1953
罪	-1954
芙	-1955
莎	-1956
谁	-1957
超	-1958
过	-1959
魔	-1960
化	-1961
布	-1962
第	-1963
诫	-1964
任	-1965
众	-1966
友	-1967
头	-1968
家	-1969
米	-1970
释	-1971
量	-1972
音	-1973
会	-1974
到	-1975
发	-1976
埵	-1977
撒	-1978
观	-1979
赛	-1980
钵	-1981
面	-1982
地	-1983
室	-1984
察	-1985
族	-1986
来	-1987
真	-1988
社	-1989
章	-1990
经	-1991
迹	-1992
们	-1993
传	-1994
位	-1995
唯	-1996
坦	-1997
塔	-1998
官	-1999
慧	-2000
职	-2001
解	-2002
A	-2003
了	-2004
名	-2005
学	-2006
报	-2007
而	-2008
都	-2009
二	-2010
先	-2011
哒	-2012
眼	-2013
线	-2014
路	-2015
部	-2016
决	-2017
协	-2018
受	-2019
域	-2020
多	-2021
携	-2022
文	-2023
曾	-2024
王	-2025
认	-2026
询	-2027
修	-2028
吡	-2029
品	-2030
喃	-2031
回	-2032
处	-2033
帝	-2034
支	-2035
普	-2036
曼	-2037
游	-2038
罕	-2039
节	-2040
邸	-2041
偶	-2042
分	-2043
制	-2044
基	-2045
数	-2046
曰	-2047
直	-2048
纶	-2049
般	-2050
花	-2051
谛	-2052
E	-2053
整	-2054
瓦	-2055
续	-2056
辞	-2057
雄	-2058
、	-2059
下	-2060
全	-2061
前	-2062
太	-2063
序	-2064
待	-2065
徒	-2066
情	-2067
持	-2068
方	-2069
机	-2070
滑	-2071
祀	-2072
祭	-2073
议	-2074
长	-2075
魂	-2076
个	-2077
允	-2078
否	-2079
孩	-2080
差	-2081
拟	-2082
望	-2083
派	-2084
睹	-2085
示	-2086
福	-2087
策	-2088
纳	-2089
结	-2090
记	-2091
身	-2092
述	-2093
随	-2094
驮	-2095
从	-2096
余	-2097
出	-2098
功	-2099
向	-2100
命	-2101
哉	-2102
夜	-2103
奶	-2104
安	-2105
少	-2106
径	-2107
律	-2108
心	-2109
息	-2110
承	-2111
接	-2112
杀	-2113
概	-2114
水	-2115
灭	-2116
虚	-2117
规	-2118
贵	-2119
转	-2120
↓	-2121
公	-2122
切	-2123
变	-2124
归	-2125
旧	-2126
服	-2127
毋	-2128
沃	-2129
活	-2130
离	-2131
筏	-2132
色	-2133
视	-2134
重	-2135
闻	-2136
需	-2137
风	-2138
S	-2139
主	-2140
丽	-2141
争	-2142
兰	-2143
刻	-2144
去	-2145
嘎	-2146
封	-2147
层	-2148
录	-2149
惊	-2150
想	-2151
收	-2152
救	-2153
期	-2154
欲	-2155
波	-2156
火	-2157
种	-2158
精	-2159
约	-2160
证	-2161
责	-2162
遭	-2163
预	-2164
食	-2165
乳	-2166
令	-2167
判	-2168
夫	-2169
已	-2170
师	-2171
平	-2172
座	-2173
技	-2174
札	-2175
格	-2176
案	-2177
涉	-2178
源	-2179
演	-2180
焉	-2181
税	-2182
立	-2183
船	-2184
良	-2185
落	-2186
诃	-2187
予	-2188
依	-2189
十	-2190
印	-2191
叠	-2192
哆	-2193
导	-2194
岂	-2195
府	-2196
忆	-2197
念	-2198
恩	-2199
易	-2200
楽	-2201
治	-2202
笑	-2203
编	-2204
肇	-2205
艺	-2206
诞	-2207
露	-2208
/	-2209
交	-2210
侧	-2211
双	-2212
器	-2213
备	-2214
失	-2215
婆	-2216
婚	-2217
年	-2218
所	-2219
托	-2220
据	-2221
效	-2222
核	-2223
消	-2224
用	-2225
看	-2226
秩	-2227
管	-2228
美	-2229
联	-2230
范	-2231
菲	-2232
血	-2233
请	-2234
谈	-2235
赋	-2236
跪	-2237
运	-2238
逻	-2239
配	-2240
降	-2241
也	-2242
价	-2243
兵	-2244
几	-2245
刀	-2246
又	-2247
叔	-2248
取	-2249
叹	-2250
哈	-2251
复	-2252
妥	-2253
妻	-2254
尺	-2255
工	-2256
希	-2257
式	-2258
恋	-2259
敌	-2260
断	-2261
景	-2262
条	-2263
点	-2264
物	-2265
盗	-2266
突	-2267
竟	-2268
致	-2269
调	-2270
载	-2271
辑	-2272
途	-2273
金	-2274
颅	-2275
龙	-2276
X	-2277
习	-2278
乱	-2279
兮	-2280
划	-2281
周	-2282
哀	-2283
喇	-2284
场	-2285
展	-2286
带	-2287
底	-2288
引	-2289
御	-2290
慨	-2291
户	-2292
打	-2293
执	-2294
指	-2295
换	-2296
敬	-2297
最	-2298
极	-2299
玩	-2300
畴	-2301
程	-2302
端	-2303
绝	-2304
裙	-2305
诚	-2306
追	-2307
逐	-2308
青	-2309
领	-2310
高	-2311
鱼	-2312
F	-2313
W	-2314
—	-2315
云	-2316
典	-2317
听	-2318
啊	-2319
嗣	-2320
妖	-2321
委	-2322
姿	-2323
密	-2324
尽	-2325
干	-2326
弥	-2327
形	-2328
影	-2329
悉	-2330
愿	-2331
择	-2332
拿	-2333
探	-2334
措	-2335
放	-2336
暂	-2337
暴	-2338
标	-2339
死	-2340
气	-2341
清	-2342
稀	-2343
素	-2344
群	-2345
虔	-2346
表	-2347
装	-2348
许	-2349
贤	-2350
遗	-2351
顿	-2352
且	-2353
仪	-2354
伪	-2355
伽	-2356
像	-2357
僚	-2358
入	-2359
六	-2360
办	-2361
口	-2362
召	-2363
图	-2364
堂	-2365
外	-2366
姐	-2367
孕	-2368
容	-2369
寻	-2370
属	-2371
开	-2372
当	-2373
役	-2374
恐	-2375
戏	-2376
手	-2377
撰	-2378
昧	-2379
柄	-2380
残	-2381
毗	-2382
求	-2383
澜	-2384
盖	-2385
石	-2386
破	-2387
禀	-2388
私	-2389
童	-2390
符	-2391
级	-2392
翼	-2393
营	-2394
计	-2395
负	-2396
辉	-2397
速	-2398
错	-2399
镜	-2400
队	-2401
阴	-2402
y	-2403
仸	-2404
值	-2405
假	-2406
写	-2407
凡	-2408
区	-2409
危	-2410
参	-2411
台	-2412
史	-2413
号	-2414
呼	-2415
喻	-2416
四	-2417
妇	-2418
字	-2419
审	-2420
寓	-2421
尸	-2422
廷	-2423
彼	-2424
往	-2425
忒	-2426
怪	-2427
慕	-2428
护	-2429
提	-2430
旋	-2431
朗	-2432
构	-2433
欣	-2434
没	-2435
涌	-2436
漫	-2437
照	-2438
狩	-2439
电	-2440
研	-2441
礼	-2442
答	-2443
索	-2444
终	-2445
绎	-2446
育	-2447
胎	-2448
舅	-2449
蒙	-2450
裹	-2451
讨	-2452
设	-2453
践	-2454
还	-2455
进	-2456
迫	-2457
里	-2458
链	-2459
闭	-2460
阅	-2461
雪	-2462
饰	-2463
l	-2464
o	-2465
┇	-2466
亡	-2467
养	-2468
劝	-2469
单	-2470
启	-2471
味	-2472
哲	-2473
壤	-2474
声	-2475
奴	-2476
妹	-2477
居	-2478
并	-2479
庭	-2480
弹	-2481
怒	-2482
恒	-2483
术	-2484
查	-2485
歌	-2486
殴	-2487
混	-2488
溯	-2489
爷	-2490
畏	-2491
留	-2492
眠	-2493
窗	-2494
签	-2495
糖	-2496
纷	-2497
置	-2498
耦	-2499
英	-2500
荡	-2501
薄	-2502
西	-2503
访	-2504
诉	-2505
谑	-2506
败	-2507
赎	-2508
遍	-2509
采	-2510
阶	-2511
题	-2512
鬼	-2513
魄	-2514
>	-2515
O	-2516
万	-2517
两	-2518
五	-2519
仅	-2520
付	-2521
仰	-2522
企	-2523
伦	-2524
伴	-2525
佩	-2526
例	-2527
做	-2528
内	-2529
册	-2530
农	-2531
列	-2532
初	-2533
别	-2534
势	-2535
华	-2536
卜	-2537
厌	-2538
及	-2539
员	-2540
咒	-2541
啦	-2542
嗒	-2543
土	-2544
境	-2545
夺	-2546
常	-2547
幼	-2548
庸	-2549
彩	-2550
悚	-2551
惑	-2552
才	-2553
投	-2554
折	-2555
抚	-2556
抵	-2557
挚	-2558
攀	-2559
料	-2560
新	-2561
既	-2562
晶	-2563
村	-2564
树	-2565
样	-2566
永	-2567
汇	-2568
注	-2569
率	-2570
略	-2571
病	-2572
白	-2573
皮	-2574
督	-2575
确	-2576
称	-2577
统	-2578
缴	-2579
缺	-2580
耶	-2581
肢	-2582
背	-2583
航	-2584
艾	-2585
藏	-2586
蛋	-2587
街	-2588
训	-2589
语	-2590
谓	-2591
貌	-2592
辖	-2593
辰	-2594
近	-2595
适	-2596
遂	-2597
遣	-2598
避	-2599
隔	-2600
隶	-2601
雌	-2602
震	-2603
频	-2604
首	-2605
驱	-2606
验	-2607
黑	-2608
V	-2609
n	-2610
互	-2611
件	-2612
仿	-2613
休	-2614
供	-2615
借	-2616
倾	-2617
共	-2618
冲	-2619
冷	-2620
刊	-2621
剧	-2622
匠	-2623
卷	-2624
压	-2625
反	-2626
另	-2627
各	-2628
君	-2629
吸	-2630
商	-2631
块	-2632
型	-2633
壮	-2634
姨	-2635
季	-2636
宇	-2637
宏	-2638
尴	-2639
山	-2640
帮	-2641
庇	-2642
弟	-2643
弱	-2644
征	-2645
徊	-2646
戮	-2647
扶	-2648
抗	-2649
抽	-2650
捕	-2651
推	-2652
操	-2653
斧	-2654
晰	-2655
杯	-2656
染	-2657
根	-2658
歹	-2659
殿	-2660
毁	-2661
灌	-2662
灯	-2663
炸	-2664
爆	-2665
狂	-2666
琉	-2667
甲	-2668
瞬	-2669
稳	-2670
穿	-2671
窥	-2672
算	-2673
纂	-2674
纯	-2675
组	-2676
继	-2677
缔	-2678
缘	-2679
耻	-2680
臻	-2681
莫	-2682
获	-2683
藻	-2684
衡	-2685
袭	-2686
诅	-2687
误	-2688
说	-2689
谱	-2690
贞	-2691
贱	-2692
踏	-2693
踪	-2694
轰	-2695
边	-2696
醒	-2697
铺	-2698
限	-2699
院	-2700
隐	-2701
雨	-2702
静	-2703
项	-2704
顺	-2705
马	-2706
骨	-2707
魁	-2708
鲁	-2709
鹅	-2710
C	-2711
H	-2712
N	-2713
P	-2714
┷	-2715
■	-2716
严	-2717
举	-2718
久	-2719
么	-2720
什	-2721
伏	-2722
伤	-2723
住	-2724
保	-2725
倪	-2726
减	-2727
击	-2728
刚	-2729
加	-2730
劫	-2731
包	-2732
吃	-2733
含	-2734
咔	-2735
坏	-2736
姻	-2737
娃	-2738
宜	-2739
客	-2740
害	-2741
宿	-2742
寂	-2743
屠	-2744
左	-2745
床	-2746
弃	-2747
弦	-2748
徘	-2749
循	-2750
忑	-2751
悦	-2752
悬	-2753
扑	-2754
抉	-2755
控	-2756
摄	-2757
播	-2758
撼	-2759
散	-2760
斥	-2761
施	-2762
映	-2763
曲	-2764
更	-2765
替	-2766
梦	-2767
梭	-2768
步	-2769
段	-2770
每	-2771
毫	-2772
浪	-2773
满	-2774
炼	-2775
炽	-2776
环	-2777
矢	-2778
禁	-2779
粹	-2780
绪	-2781
署	-2782
耳	-2783
肉	-2784
脚	-2785
脱	-2786
舞	-2787
舱	-2788
草	-2789
著	-2790
虽	-2791
融	-2792
衰	-2793
袍	-2794
裂	-2795
褚	-2796
读	-2797
谋	-2798
贫	-2799
资	-2800
走	-2801
越	-2802
躯	-2803
轮	-2804
辅	-2805
辱	-2806
迅	-2807
退	-2808
选	-2809
造	-2810
遥	-2811
邀	-2812
钨	-2813
键	-2814
闹	-2815
除	-2816
隅	-2817
零	-2818
韦	-2819
颜	-2820
飞	-2821
鲜	-2822
默	-2823
1	-2824
4	-2825
?	-2826
M	-2827
↑	-2828
《	-2829
》	-2830
七	-2831
乐	-2832
乘	-2833
买	-2834
亵	-2835
今	-2836
伐	-2837
似	-2838
侣	-2839
儿	-2840
免	-2841
军	-2842
准	-2843
凋	-2844
刹	-2845
劳	-2846
医	-2847
升	-2848
呈	-2849
呢	-2850
嘚	-2851
噫	-2852
圆	-2853
均	-2854
奋	-2855
好	-2856
媚	-2857
嬉	-2858
守	-2859
完	-2860
尊	-2861
小	-2862
尚	-2863
尬	-2864
屑	-2865
岸	-2866
嵌	-2867
市	-2868
幸	-2869
幻	-2870
库	-2871
微	-2872
忘	-2873
总	-2874
悲	-2875
惧	-2876
慰	-2877
懂	-2878
懵	-2879
扁	-2880
担	-2881
攻	-2882
早	-2883
显	-2884
晕	-2885
暧	-2886
杂	-2887
架	-2888
检	-2889
榻	-2890
次	-2891
池	-2892
沙	-2893
泼	-2894
洁	-2895
测	-2896
滩	-2897
炮	-2898
猎	-2899
珊	-2900
瑚	-2901
甚	-2902
疑	-2903
目	-2904
睡	-2905
矩	-2906
祈	-2907
科	-2908
移	-2909
究	-2910
窘	-2911
简	-2912
箭	-2913
粒	-2914
纠	-2915
细	-2916
羞	-2917
聘	-2918
聩	-2919
胶	-2920
舍	-2921
茎	-2922
蛸	-2923
衣	-2924
补	-2925
讥	-2926
讽	-2927
该	-2928
诺	-2929
财	-2930
赐	-2931
赠	-2932
赦	-2933
起	-2934
趋	-2935
踝	-2936
返	-2937
远	-2938
违	-2939
遁	-2940
邪	-2941
邻	-2942
酒	-2943
钝	-2944
钻	-2945
阳	-2946
际	-2947
陨	-2948
雅	-2949
雇	-2950
靠	-2951
颂	-2952
饮	-2953
骸	-2954
魅	-2955
鸣	-2956
2	-2957
3	-2958
i	-2959
r	-2960
±	-2961
Ψ	-2962
丝	-2963
乃	-2964
九	-2965
佐	-2966
佑	-2967
佣	-2968
侍	-2969
俗	-2970
停	-2971
健	-2972
兆	-2973
八	-2974
兼	-2975
况	-2976
凭	-2977
副	-2978
助	-2979
匿	-2980
千	-2981
卖	-2982
博	-2983
占	-2984
卡	-2985
叙	-2986
右	-2987
叶	-2988
吞	-2989
吹	-2990
吻	-2991
咕	-2992
响	-2993
哥	-2994
唱	-2995
嗅	-2996
噬	-2997
坚	-2998
城	-2999
堕	-3000
增	-3001
壁	-3002
奉	-3003
契	-3004
妙	-3005
妲	-3006
始	-3007
婴	-3008
宙	-3009
宪	-3010
宽	-3011
寿	-3012
射	-3013
局	-3014
幂	-3015
幽	-3016
庄	-3017
廉	-3018
延	-3019
建	-3020
强	-3021
忏	-3022
忧	-3023
怀	-3024
怨	-3025
恍	-3026
恭	-3027
恰	-3028
悔	-3029
悟	-3030
惜	-3031
惯	-3032
愉	-3033
慈	-3034
戒	-3035
披	-3036
拆	-3037
拍	-3038
拓	-3039
拼	-3040
挂	-3041
挥	-3042
授	-3043
掉	-3044
排	-3045
改	-3046
旁	-3047
旅	-3048
晓	-3049
月	-3050
木	-3051
末	-3052
林	-3053
柱	-3054
校	-3055
梢	-3056
模	-3057
欢	-3058
殆	-3059
毕	-3060
汗	-3061
沉	-3062
沾	-3063
泥	-3064
浩	-3065
液	-3066
渎	-3067
湖	-3068
漏	-3069
潜	-3070
瀚	-3071
灼	-3072
灾	-3073
烧	-3074
热	-3075
焦	-3076
燃	-3077
片	-3078
版	-3079
牵	-3080
狱	-3081
玄	-3082
球	-3083
瑰	-3084
甄	-3085
痕	-3086
百	-3087
皇	-3088
盈	-3089
眷	-3090
睛	-3091
瞳	-3092
矣	-3093
碌	-3094
祸	-3095
稿	-3096
窕	-3097
红	-3098
给	-3099
绵	-3100
缠	-3101
缩	-3102
耆	-3103
胀	-3104
脏	-3105
膜	-3106
臣	-3107
舰	-3108
艰	-3109
苯	-3110
茶	-3111
虑	-3112
蝶	-3113
裁	-3114
褶	-3115
觐	-3116
触	-3117
讲	-3118
诰	-3119
诵	-3120
赖	-3121
赞	-3122
趁	-3123
足	-3124
距	-3125
辩	-3126
迁	-3127
送	-3128
酷	-3129
锈	-3130
锚	-3131
镇	-3132
阇	-3133
附	-3134
陷	-3135
障	-3136
雏	-3137
顷	-3138
颤	-3139
.	-3140
5	-3141
I	-3142
L	-3143
Y	-3144
c	-3145
x	-3146
→	-3147
丘	-3148
乏	-3149
些	-3150
产	-3151
享	-3152
亮	-3153
亿	-3154
仏	-3155
份	-3156
优	-3157
伟	-3158
佛	-3159
侈	-3160
侵	-3161
候	-3162
偏	-3163
偷	-3164
偿	-3165
储	-3166
僧	-3167
冰	-3168
净	-3169
凛	-3170
凝	-3171
创	-3172
刺	-3173
剥	-3174
剩	-3175
劈	-3176
勃	-3177
匮	-3178
半	-3179
厄	-3180
历	-3181
只	-3182
吉	-3183
吗	-3184
吧	-3185
吼	-3186
呵	-3187
咀	-3188
咸	-3189
哭	-3190
哺	-3191
唏	-3192
唤	-3193
嗔	-3194
嘘	-3195
嘲	-3196
嚼	-3197
困	-3198
固	-3199
坐	-3200
坛	-3201
坡	-3202
垄	-3203
垫	-3204
埋	-3205
堡	-3206
堪	-3207
塌	-3208
够	-3209
夭	-3210
央	-3211
奈	-3212
奏	-3213
奔	-3214
奖	-3215
套	-3216
奢	-3217
妾	-3218
媾	-3219
孪	-3220
宁	-3221
宣	-3222
寄	-3223
寰	-3224
尘	-3225
尾	-3226
届	-3227
崩	-3228
巡	-3229
巧	-3230
巷	-3231
席	-3232
帼	-3233
庆	-3234
店	-3235
废	-3236
彰	-3237
忌	-3238
快	-3239
怎	-3240
怖	-3241
悄	-3242
悠	-3243
患	-3244
您	-3245
悯	-3246
惚	-3247
惶	-3248
愁	-3249
愚	-3250
愤	-3251
戟	-3252
戾	-3253
扰	-3254
抢	-3255
抱	-3256
拂	-3257
招	-3258
拾	-3259
挟	-3260
振	-3261
捏	-3262
捞	-3263
捷	-3264
掷	-3265
描	-3266
摆	-3267
敲	-3268
斡	-3269
旬	-3270
昵	-3271
晃	-3272
暗	-3273
曳	-3274
朴	-3275
松	-3276
析	-3277
枕	-3278
枝	-3279
某	-3280
桥	-3281
梁	-3282
械	-3283
植	-3284
欺	-3285
止	-3286
武	-3287
歼	-3288
毅	-3289
毒	-3290
毙	-3291
毛	-3292
汐	-3293
汞	-3294
污	-3295
沟	-3296
沦	-3297
沿	-3298
泄	-3299
泉	-3300
泡	-3301
泽	-3302
洞	-3303
济	-3304
浮	-3305
渐	-3306
渗	-3307
温	-3308
渴	-3309
湿	-3310
溅	-3311
溜	-3312
溢	-3313
溪	-3314
滞	-3315
潢	-3316
潭	-3317
濒	-3318
炙	-3319
烛	-3320
焰	-3321
犬	-3322
犯	-3323
狐	-3324
独	-3325
狭	-3326
狮	-3327
玉	-3328
珠	-3329
瑟	-3330
璃	-3331
画	-3332
畔	-3333
疯	-3334
疲	-3335
痛	-3336
登	-3337
皈	-3338
皱	-3339
益	-3340
盛	-3341
盟	-3342
盲	-3343
睦	-3344
瞥	-3345
短	-3346
硕	-3347
碍	-3348
碎	-3349
祖	-3350
祝	-3351
祟	-3352
祥	-3353
祷	-3354
秘	-3355
积	-3356
穴	-3357
筑	-3358
筹	-3359
箔	-3360
箴	-3361
簇	-3362
籁	-3363
籽	-3364
粕	-3365
粘	-3366
糕	-3367
糟	-3368
繁	-3369
纵	-3370
纹	-3371
绘	-3372
络	-3373
绯	-3374
绿	-3375
缓	-3376
缚	-3377
网	-3378
罚	-3379
羊	-3380
耀	-3381
老	-3382
耗	-3383
肌	-3384
股	-3385
肤	-3386
胞	-3387
脉	-3388
腐	-3389
腾	-3390
舷	-3391
芯	-3392
苦	-3393
荫	-3394
蔑	-3395
蔽	-3396
蕊	-3397
蕴	-3398
薪	-3399
虹	-3400
蛊	-3401
蛰	-3402
蜕	-3403
衍	-3404
袖	-3405
褥	-3406
覆	-3407
觅	-3408
誓	-3409
警	-3410
词	-3411
诗	-3412
话	-3413
诱	-3414
诽	-3415
谄	-3416
谢	-3417
谤	-3418
谬	-3419
货	-3420
费	-3421
贺	-3422
赘	-3423
跋	-3424
跳	-3425
踵	-3426
蹭	-3427
车	-3428
轨	-3429
较	-3430
辛	-3431
辜	-3432
迎	-3433
迟	-3434
迷	-3435
逆	-3436
透	-3437
逝	-3438
逸	-3439
逾	-3440
遮	-3441
遵	-3442
郎	-3443
鎏	-3444
针	-3445
铃	-3446
铅	-3447
铸	-3448
闷	-3449
阐	-3450
阵	-3451
阻	-3452
险	-3453
雕	-3454
雾	-3455
页	-3456
须	-3457
颗	-3458
飘	-3459
餐	-3460
饭	-3461
饼	-3462
馅	-3463
驻	-3464
鳍	-3465
鳞	-3466
鹊	-3467
黄	-3468
鼎	-3469
6	-3470
B	-3471
G	-3472
Q	-3473
R	-3474
T	-3475
Z	-3476
a	-3477
b	-3478
u	-3479
v	-3480
z	-3481
“	-3482
”	-3483
↖	-3484
↙	-3485
└	-3486
┘	-3487
┬	-3488
专	-3489
丛	-3490
丞	-3491
丢	-3492
丧	-3493
丰	-3494
乖	-3495
亏	-3496
井	-3497
亘	-3498
介	-3499
仑	-3500
仓	-3501
伙	-3502
佳	-3503
促	-3504
俩	-3505
俭	-3506
倒	-3507
倘	-3508
偈	-3509
偎	-3510
偕	-3511
傍	-3512
傲	-3513
儆	-3514
兄	-3515
充	-3516
兜	-3517
兴	-3518
冒	-3519
冕	-3520
冠	-3521
凑	-3522
函	-3523
凿	-3524
刍	-3525
刷	-3526
剑	-3527
剪	-3528
割	-3529
劣	-3530
励	-3531
劲	-3532
勉	-3533
勤	-3534
匣	-3535
卑	-3536
厅	-3537
厚	-3538
厨	-3539
厮	-3540
叉	-3541
叮	-3542
司	-3543
吝	-3544
吟	-3545
咎	-3546
咏	-3547
咫	-3548
咯	-3549
唆	-3550
唇	-3551
唔	-3552
售	-3553
啄	-3554
啸	-3555
啼	-3556
喊	-3557
嗤	-3558
嘱	-3559
嘴	-3560
噱	-3561
嚎	-3562
嚓	-3563
囚	-3564
团	-3565
园	-3566
围	-3567
圈	-3568
垂	-3569
垢	-3570
埙	-3571
塞	-3572
塾	-3573
士	-3574
壳	-3575
夏	-3576
夕	-3577
她	-3578
妆	-3579
妒	-3580
姊	-3581
姝	-3582
娇	-3583
娘	-3584
婉	-3585
婪	-3586
媒	-3587
媛	-3588
嫉	-3589
嫌	-3590
嫒	-3591
孢	-3592
孱	-3593
宗	-3594
宝	-3595
宦	-3596
宫	-3597
宴	-3598
富	-3599
寐	-3600
寝	-3601
寡	-3602
尝	-3603
尤	-3604
尼	-3605
屈	-3606
屋	-3607
屏	-3608
崇	-3609
崖	-3610
川	-3611
巨	-3612
帕	-3613
幅	-3614
幕	-3615
庶	-3616
廊	-3617
弄	-3618
弊	-3619
张	-3620
彪	-3621
彷	-3622
很	-3623
徨	-3624
徽	-3625
忠	-3626
怜	-3627
怠	-3628
怡	-3629
急	-3630
怵	-3631
恕	-3632
恤	-3633
悍	-3634
悖	-3635
惇	-3636
惋	-3637
惨	-3638
惩	-3639
惫	-3640
惰	-3641
愧	-3642
愫	-3643
慎	-3644
慑	-3645
憧	-3646
憬	-3647
戴	-3648
房	-3649
扎	-3650
扩	-3651
扯	-3652
找	-3653
把	-3654
抖	-3655
抛	-3656
拌	-3657
拐	-3658
拒	-3659
拔	-3660
拖	-3661
拗	-3662
拘	-3663
拜	-3664
拨	-3665
按	-3666
损	-3667
掂	-3668
掠	-3669
掸	-3670
搀	-3671
搁	-3672
搅	-3673
搜	-3674
摇	-3675
摧	-3676
撑	-3677
撞	-3678
擎	-3679
擦	-3680
敛	-3681
敢	-3682
斗	-3683
日	-3684
昏	-3685
昼	-3686
晚	-3687
晦	-3688
暇	-3689
曙	-3690
朋	-3691
朦	-3692
朵	-3693
杆	-3694
材	-3695
束	-3696
枚	-3697
枢	-3698
栋	-3699
栖	-3700
栗	-3701
桅	-3702
档	-3703
梳	-3704
棘	-3705
森	-3706
楚	-3707
榷	-3708
槛	-3709
槽	-3710
檀	-3711
欠	-3712
款	-3713
歇	-3714
歧	-3715
殇	-3716
殉	-3717
殊	-3718
殚	-3719
氏	-3720
氙	-3721
氛	-3722
氢	-3723
汹	-3724
沛	-3725
沸	-3726
泌	-3727
泛	-3728
泪	-3729
泰	-3730
泵	-3731
洋	-3732
洽	-3733
浃	-3734
浅	-3735
浆	-3736
浇	-3737
浊	-3738
浓	-3739
浸	-3740
涎	-3741
涓	-3742
涛	-3743
深	-3744
渲	-3745
湮	-3746
溶	-3747
溺	-3748
滥	-3749
漾	-3750
潘	-3751
潮	-3752
激	-3753
瀑	-3754
灸	-3755
炫	-3756
烈	-3757
烤	-3758
煌	-3759
熄	-3760
熏	-3761
熙	-3762
熟	-3763
熵	-3764
爻	-3765
爽	-3766
牧	-3767
牲	-3768
牺	-3769
状	-3770
狙	-3771
狞	-3772
狰	-3773
猛	-3774
猜	-3775
猥	-3776
献	-3777
玷	-3778
珀	-3779
琢	-3780
琴	-3781
瑷	-3782
瓶	-3783
疏	-3784
疚	-3785
痴	-3786
瘁	-3787
瘢	-3788
瘤	-3789
瘾	-3790
癌	-3791
盆	-3792
监	-3793
盒	-3794
盘	-3795
眩	-3796
睑	-3797
瞌	-3798
瞒	-3799
矗	-3800
矫	-3801
码	-3802
砂	-3803
砍	-3804
砸	-3805
础	-3806
硬	-3807
碰	-3808
碳	-3809
磊	-3810
磋	-3811
磨	-3812
磷	-3813
祉	-3814
票	-3815
秀	-3816
秽	-3817
稍	-3818
穆	-3819
窃	-3820
窟	-3821
窦	-3822
竭	-3823
竹	-3824
笔	-3825
笙	-3826
笨	-3827
筋	-3828
筛	-3829
箱	-3830
籍	-3831
糊	-3832
紊	-3833
紧	-3834
紫	-3835
累	-3836
絮	-3837
纤	-3838
纬	-3839
纲	-3840
绊	-3841
绛	-3842
绽	-3843
缄	-3844
缈	-3845
缥	-3846
罄	-3847
羁	-3848
羔	-3849
翻	-3850
考	-3851
耍	-3852
耽	-3853
聆	-3854
聚	-3855
肃	-3856
肥	-3857
肯	-3858
肺	-3859
肿	-3860
胁	-3861
胃	-3862
胆	-3863
胖	-3864
胧	-3865
胸	-3866
脐	-3867
脑	-3868
腑	-3869
腔	-3870
腕	-3871
腥	-3872
膨	-3873
臂	-3874
芊	-3875
芜	-3876
芽	-3877
苟	-3878
茧	-3879
荆	-3880
荐	-3881
荒	-3882
荣	-3883
药	-3884
莖	-3885
莹	-3886
菊	-3887
菜	-3888
菩	-3889
萌	-3890
萧	-3891
蔓	-3892
蔷	-3893
薇	-3894
藕	-3895
虎	-3896
虐	-3897
虫	-3898
虾	-3899
螺	-3900
蠕	-3901
衙	-3902
衬	-3903
裕	-3904
裟	-3905
裤	-3906
裱	-3907
裸	-3908
褓	-3909
襁	-3910
襢	-3911
誉	-3912
订	-3913
让	-3914
讳	-3915
诓	-3916
试	-3917
诠	-3918
诧	-3919
谊	-3920
谏	-3921
谕	-3922
谦	-3923
谨	-3924
谭	-3925
谴	-3926
贪	-3927
贴	-3928
贷	-3929
贿	-3930
赂	-3931
赌	-3932
赤	-3933
赫	-3934
趾	-3935
跃	-3936
跑	-3937
跛	-3938
跟	-3939
跨	-3940
蹈	-3941
躬	-3942
躺	-3943
轻	-3944
辈	-3945
辐	-3946
输	-3947
迈	-3948
连	-3949
迭	-3950
迸	-3951
逃	-3952
逛	-3953
逞	-3954
逢	-3955
遐	-3956
邮	-3957
郑	-3958
野	-3959
釜	-3960
鉴	-3961
銮	-3962
钥	-3963
钦	-3964
铁	-3965
铂	-3966
锁	-3967
锥	-3968
镀	-3969
镫	-3970
镶	-3971
闲	-3972
闺	-3973
阂	-3974
阉	-3975
阔	-3976
阖	-3977
防	-3978
陆	-3979
陈	-3980
陋	-3981
陶	-3982
隘	-3983
隙	-3984
集	-3985
雷	-3986
霓	-3987
革	-3988
鞠	-3989
韬	-3990
顶	-3991
顽	-3992
颇	-3993
颚	-3994
