<unk>	0
<pad>	0
<bos>	0
<eos>	0
<mask>	0
<ghost>	0
**	-0
▁**	-1
桔梗	-2
存在	-3
世界	-4
我的	-5
我们	-6
sp	-7
em	-8
emsp	-9
于是	-10
▁我	-11
▁那	-12
姬神	-13
成为	-14
;&	-15
意志	-16
这是	-17
美姬	-18
姆特	-19
希姬	-20
祈姬	-21
阿姆特	-22
你们	-23
▁【	-24
灵魂	-25
神官	-26
▁圣	-27
一切	-28
巴尔	-29
如此	-30
知识	-31
▁于是	-32
就是	-33
巫女	-34
吾神	-35
自己	-36
▁桔梗	-37
仁神	-38
▁美姬	-39
比尔	-40
▁希姬	-41
▁祈姬	-42
真实	-43
丹陀	-44
神姬	-45
无有	-46
太姬	-47
自我	-48
纱织	-49
达布	-50
智慧	-51
巴尔丹陀	-52
不可	-53
于此	-54
】**	-55
▁**【	-56
妙姬	-57
祂仆	-58
蕾祂仆	-59
玄姬	-60
神人	-61
▁若	-62
喃特	-63
达布斯	-64
阿喃特	-65
什么	-66
你的	-67
克蕾祂仆	-68
中的	-69
以此	-70
那是	-71
哈鹭	-72
哈鹭芙	-73
我们的	-74
之神	-75
时空	-76
福音	-77
魔女	-78
▁[	-79
▁是	-80
戈拉	-81
▁灵魂	-82
▁在	-83
先知	-84
▁阿姆特	-85
其神	-86
▁|	-87
思维	-88
救赎	-89
▁知识	-90
使得	-91
色的	-92
贵族	-93
▁这	-94
因此	-95
奥菲	-96
**\	-97
时间	-98
没有	-99
的神	-100
行动	-101
比尔斯	-102
作为	-103
▁以	-104
生命	-105
知其	-106
蝴蝶	-107
存在的	-108
母亲	-109
不是	-110
即是	-111
只是	-112
因为	-113
摩诃	-114
神的	-115
美斯	-116
需要	-117
赛美斯	-118
▁其	-119
内容	-120
时代	-121
降临	-122
也是	-123
神社	-124
▁花	-125
不能	-126
▁人	-127
利札	-128
天界	-129
文字	-130
知悉	-131
巴利札	-132
奥德	-133
莎曼	-134
奥德莎曼	-135
▁神	-136
一个	-137
使其	-138
▁这是	-139
意识	-140
水母	-141
众神	-142
利亚	-143
吉祥	-144
▁那是	-145
▁&	-146
它们	-147
实在	-148
无量	-149
权柄	-150
的人	-151
纪元	-152
罕钵	-153
达夫	-154
米利亚	-155
马达夫	-156
▁如	-157
▁阿	-158
丽斯	-159
人类	-160
身份	-161
戈拉姆	-162
奥菲丽斯	-163
大地	-164
▁太姬	-165
以撒	-166
何以	-167
希以撒	-168
文字内容	-169
▁凡	-170
得以	-171
珊瑚	-172
看到	-173
▁身份	-174
喜比尔	-175
▁文字内容	-176
孩子	-177
汝之	-178
神圣	-179
诸神	-180
魔法	-181
成为了	-182
大名	-183
无法	-184
爱的	-185
的是	-186
自然	-187
就像	-188
正法	-189
真理	-190
祈祷	-191
芙埵	-192
蒂奥	-193
萨芙埵	-194
人们	-195
便是	-196
辨识	-197
一样	-198
上帝	-199
世间	-200
乌拉	-201
亦无	-202
琳斯	-203
巴尔特	-204
▁克蕾祂仆	-205
▁灵	-206
上的	-207
之间	-208
何者	-209
必要	-210
神子	-211
种子	-212
▁诸	-213
彼岸	-214
御风	-215
流光	-216
知晓	-217
织质	-218
踏影	-219
这样	-220
罕钵拉	-221
▁巴尔丹陀	-222
告诫	-223
▁一	-224
之时	-225
功德	-226
权能	-227
祭祀	-228
那个	-229
▁妙姬	-230
▁水母	-231
世界的	-232
▁你	-233
人的	-234
吾之	-235
塔斯	-236
尔斯	-237
言释	-238
辉夜	-239
陀沃	-240
▁圣灵	-241
▁玄姬	-242
▁花海	-243
玛尔斯	-244
赛塔斯	-245
不同	-246
奥赛	-247
如同	-248
我即	-249
是神	-250
比修	-251
语言	-252
非非	-253
▁灵魄	-254
▁珊瑚	-255
奥赛斯	-256
一体	-257
不再	-258
价值	-259
关系	-260
吾等	-261
我就	-262
未有	-263
永恒	-264
神之	-265
萨黑	-266
道路	-267
▁圣杯	-268
▁圣血	-269
▁圣骸	-270
▁彼岸	-271
▁御风	-272
▁流光	-273
▁踏影	-274
这就是	-275
善恶	-276
拉嘎	-277
给予	-278
▁我们	-279
萨拉嘎	-280
▁达布斯	-281
▁不	-282
不见	-283
亦是	-284
愈罪	-285
成了	-286
我之	-287
挚友	-288
乌拉德	-289
比修斯	-290
▁(	-291
▁啊	-292
▁故	-293
不知	-294
为了	-295
仁吾	-296
信徒	-297
可以	-298
喜悦	-299
孕育	-300
并非	-301
我是	-302
智者	-303
▁阿喃特	-304
亦然	-305
人之	-306
契约	-307
如何	-308
现实	-309
赛雅	-310
赛雅西	-311
--	-312
佩室	-313
哆拉	-314
如是	-315
神爱	-316
▁姬神	-317
三愈罪	-318
斯佩室	-319
的世界	-320
▁吾	-321
▁此	-322
就要	-323
带来	-324
拉罗	-325
比亚	-326
盒子	-327
神性	-328
神道	-329
难埵	-330
▁是的	-331
瓦拉罗	-332
阿萨黑	-333
喀德	-334
猎犬	-335
由此	-336
若是	-337
▁凡是	-338
旧神官	-339
辉夜姬	-340
▁天	-341
▁当	-342
▁第	-343
多拉	-344
姬楽	-345
室利	-346
庇护	-347
异星	-348
成就	-349
的爱	-350
笼子	-351
者何	-352
诸民	-353
赐福	-354
▁一时	-355
如此的	-356
的存在	-357
▁美	-358
为何	-359
利祂	-360
吡那	-361
喃陀	-362
土壤	-363
德鹭	-364
思想	-365
拉玛	-366
月亮	-367
汝等	-368
王子	-369
皆是	-370
精神	-371
达姆	-372
▁你们	-373
▁因此	-374
▁贵族	-375
吡那普	-376
塔利祂	-377
索多拉	-378
阿陀沃	-379
德鹭达姆	-380
▁奥德莎曼	-381
其人	-382
即为	-383
古塔	-384
史诗	-385
圣灵	-386
太阳	-387
应允	-388
性质	-389
恶魔	-390
的歌	-391
自由	-392
道义	-393
其神官	-394
桔梗之	-395
▁]	-396
▁有	-397
人偶	-398
基督	-399
奥利	-400
尺度	-401
思议	-402
性之	-403
我将	-404
摩莎	-405
诞生	-406
财富	-407
那些	-408
▁仁神	-409
▁我是	-410
艾琳斯	-411
蒂奥罗	-412
丹驮	-413
于我	-414
信仰	-415
修女	-416
吡蒂	-417
告诉	-418
哒琳	-419
坦言	-420
女子	-421
审判	-422
惊悚	-423
战斗	-424
无可	-425
此为	-426
气息	-427
皆有	-428
神体	-429
纯粹	-430
这些	-431
非不	-432
▁神官	-433
不可思议	-434
吡蒂丹驮	-435
lo	-436
人间	-437
便要	-438
它的	-439
巴德	-440
恐惧	-441
战争	-442
教廷	-443
普世	-444
波陀	-445
着释	-446
神德	-447
罪人	-448
美的	-449
蒂室	-450
loy	-451
▁巫女	-452
▁神姬	-453
▁自我	-454
喀德玛	-455
戈拉撒	-456
比亚纶	-457
萨波陀	-458
哒琳蒂室	-459
纪元桔梗	-460
萨拉嘎忑	-461
▁/	-462
▁遂	-463
下的	-464
人神	-465
何种	-466
其母	-467
天国	-468
奇迹	-469
就有	-470
幻象	-471
我自	-472
拟态	-473
未来	-474
来自	-475
毁灭	-476
父亲	-477
疑惑	-478
社民	-479
空间	-480
诸法	-481
这里	-482
面具	-483
▁史诗	-484
▁纱织	-485
你们的	-486
先知们	-487
自己的	-488
▁无	-489
为其	-490
但是	-491
何不	-492
又是	-493
国度	-494
德性	-495
拉姆	-496
未曾	-497
村民	-498
梦境	-499
爱恋	-500
罗帼	-501
职务	-502
自动	-503
蔷薇	-504
虔诚	-505
询问	-506
这个	-507
非有	-508
**(	-509
▁我将	-510
▁遂毗	-511
奥菲托	-512
比拉玛	-513
白色的	-514
神人之	-515
这便是	-516
▁善	-517
不会	-518
不得	-519
到了	-520
卜钵	-521
吃食	-522
哒喇	-523
多罗	-524
寻觅	-525
本质	-526
来了	-527
毗塔	-528
法界	-529
的时	-530
米纳	-531
这人	-532
那么	-533
非是	-534
▁因为	-535
▁我即	-536
之桔梗	-537
▁马达夫	-538
毗塔卜钵	-539
蒂奥米纳	-540
亦有	-541
光明	-542
其中	-543
其如	-544
凡是	-545
如其	-546
姿态	-547
政治	-548
故事	-549
概念	-550
欣喜	-551
现象	-552
章节	-553
至高	-554
若无	-555
蒂帕	-556
记忆	-557
诅咒	-558
就成为	-559
莎喃陀	-560
萨哆拉	-561
阿古塔	-562
魔法使	-563
ploy	-564
蒂帕拉姆	-565
东西	-566
丹姆	-567
乐章	-568
亦非	-569
人子	-570
任何	-571
企鹅	-572
何焉	-573
唯有	-574
幸福	-575
弥赛	-576
思绪	-577
我便	-578
本能	-579
村落	-580
畏惧	-581
的花	-582
神胜	-583
神谕	-584
顿觉	-585
▁吾神	-586
▁蝴蝶	-587
丹姆尔	-588
在我的	-589
存在之	-590
弥赛亚	-591
阿罗帼	-592
阿姆特之	-593
▁-	-594
▁真	-595
一种	-596
之海	-597
事业	-598
亵渎	-599
何处	-600
具备	-601
塔玛	-602
奥玛	-603
妾身	-604
它是	-605
实体	-606
属于	-607
希戈	-608
必有	-609
戏谑	-610
抉择	-611
智力	-612
未知	-613
欣慰	-614
正义	-615
法性	-616
然的	-617
知道	-618
祝福	-619
神格	-620
若有	-621
觉悟	-622
过去	-623
逻辑	-624
那里	-625
邸爱	-626
都灵	-627
难以	-628
一切的	-629
什么是	-630
奥玛窦	-631
我自己	-632
琳斯达	-633
邸爱琳斯达	-634
▁↓	-635
▁太	-636
▁爱	-637
中间	-638
二神	-639
于诸	-640
信息	-641
偶遇	-642
其诸	-643
头颅	-644
她的	-645
家族	-646
得到	-647
忘却	-648
思念	-649
携带	-650
撒玛	-651
教堂	-652
敬爱	-653
整体	-654
是然	-655
死者	-656
爱意	-657
父母	-658
生者	-659
祷告	-660
究竟	-661
维果	-662
自孕	-663
计划	-664
认知	-665
诺拉	-666
过程	-667
追逐	-668
道之	-669
随着	-670
雨夜	-671
龙蛋	-672
▁上帝	-673
亦无能	-674
意志的	-675
阿希戈	-676
阿维果	-677
黑色的	-678
▁巴尔特	-679
▁米利亚	-680
▁阿难埵	-681
,	-682
▁	-683
的	-684
;	-685
是	-686
*	-687
神	-688
之	-689
其	-690
我	-691
姬	-692
在	-693
此	-694
于	-695
不	-696
人	-697
以	-698
有	-699
那	-700
者	-701
为	-702
如	-703
无	-704
知	-705
中	-706
斯	-707
吾	-708
们	-709
就	-710
时	-711
非	-712
这	-713
你	-714
子	-715
一	-716
自	-717
爱	-718
世	-719
了	-720
界	-721
法	-722
阿	-723
德	-724
梗	-725
桔	-726
何	-727
道	-728
。	-729
言	-730
诸	-731
美	-732
可	-733
拉	-734
性	-735
成	-736
存	-737
圣	-738
和	-739
即	-740
灵	-741
意	-742
能	-743
女	-744
亦	-745
然	-746
尔	-747
若	-748
特	-749
体	-750
便	-751
姆	-752
要	-753
奥	-754
得	-755
实	-756
识	-757
使	-758
皆	-759
天	-760
间	-761
达	-762
大	-763
巴	-764
着	-765
兮	-766
生	-767
p	-768
母	-769
真	-770
它	-771
希	-772
将	-773
思	-774
\	-775
e	-776
【	-777
】	-778
来	-779
同	-780
比	-781
花	-782
利	-783
作	-784
陀	-785
智	-786
s	-787
&	-788
故	-789
汝	-790
m	-791
而	-792
会	-793
质	-794
上	-795
再	-796
仁	-797
信	-798
祈	-799
因	-800
到	-801
哉	-802
萨	-803
志	-804
(	-805
)	-806
海	-807
光	-808
动	-809
魔	-810
音	-811
被	-812
赛	-813
己	-814
必	-815
魂	-816
也	-817
由	-818
行	-819
见	-820
义	-821
玛	-822
至	-823
·	-824
空	-825
太	-826
种	-827
理	-828
相	-829
等	-830
未	-831
正	-832
祂	-833
织	-834
福	-835
胜	-836
觉	-837
现	-838
感	-839
个	-840
身	-841
遂	-842
乎	-843
官	-844
释	-845
维	-846
啊	-847
善	-848
罗	-849
与	-850
民	-851
受	-852
问	-853
喜	-854
国	-855
恶	-856
战	-857
色	-858
事	-859
却	-860
地	-861
权	-862
丹	-863
难	-864
切	-865
名	-866
对	-867
量	-868
布	-869
巫	-870
蒂	-871
摩	-872
面	-873
喃	-874
果	-875
水	-876
罪	-877
解	-878
莎	-879
明	-880
或	-881
芙	-882
塔	-883
下	-884
社	-885
出	-886
临	-887
告	-888
所	-889
系	-890
化	-891
戈	-892
看	-893
么	-894
命	-895
流	-896
代	-897
先	-898
多	-899
定	-900
样	-901
慧	-902
本	-903
经	-904
三	-905
唯	-906
妙	-907
应	-908
想	-909
象	-910
王	-911
星	-912
心	-913
撒	-914
只	-915
态	-916
鹭	-917
亲	-918
从	-919
后	-920
众	-921
具	-922
力	-923
呢	-924
辨	-925
室	-926
论	-927
愿	-928
纱	-929
过	-930
克	-931
异	-932
持	-933
救	-934
重	-935
亚	-936
风	-937
食	-938
需	-939
族	-940
文	-941
父	-942
通	-943
仆	-944
合	-945
度	-946
门	-947
蕾	-948
都	-949
-	-950
丽	-951
予	-952
奇	-953
普	-954
:	-955
变	-956
埵	-957
入	-958
玄	-959
贵	-960
凡	-961
当	-962
赎	-963
遇	-964
去	-965
夫	-966
教	-967
歌	-968
火	-969
业	-970
息	-971
纪	-972
述	-973
什	-974
书	-975
内	-976
则	-977
原	-978
夜	-979
焉	-980
部	-981
失	-982
血	-983
哈	-984
处	-985
类	-986
降	-987
像	-988
已	-989
悉	-990
彼	-991
起	-992
[	-993
]	-994
|	-995
修	-996
友	-997
物	-998
路	-999
惊	-1000
随	-1001
周	-1002
钵	-1003
令	-1004
制	-1005
灭	-1006
舞	-1007
君	-1008
念	-1009
梦	-1010
欲	-1011
求	-1012
二	-1013
元	-1014
头	-1015
御	-1016
谛	-1017
吗	-1018
回	-1019
给	-1020
迹	-1021
喀	-1022
望	-1023
没	-1024
主	-1025
乌	-1026
功	-1027
孕	-1028
白	-1029
睹	-1030
米	-1031
蝶	-1032
观	-1033
前	-1034
字	-1035
安	-1036
影	-1037
结	-1038
菲	-1039
请	-1040
里	-1041
基	-1042
容	-1043
惑	-1044
曼	-1045
西	-1046
谁	-1047
愈	-1048
波	-1049
眼	-1050
认	-1051
黑	-1052
交	-1053
但	-1054
位	-1055
婚	-1056
恋	-1057
祭	-1058
约	-1059
金	-1060
取	-1061
琳	-1062
乐	-1063
发	-1064
寻	-1065
札	-1066
死	-1067
藏	-1068
说	-1069
些	-1070
吧	-1071
孩	-1072
开	-1073
徒	-1074
曰	-1075
蝴	-1076
语	-1077
全	-1078
听	-1079
方	-1080
机	-1081
游	-1082
竟	-1083
记	-1084
任	-1085
偶	-1086
又	-1087
哒	-1088
带	-1089
终	-1090
古	-1091
托	-1092
毗	-1093
祷	-1094
离	-1095
落	-1096
马	-1097
乳	-1098
复	-1099
形	-1100
新	-1101
格	-1102
诞	-1103
各	-1104
吡	-1105
并	-1106
情	-1107
男	-1108
育	-1109
诃	-1110
财	-1111
/	-1112
关	-1113
向	-1114
域	-1115
待	-1116
护	-1117
源	-1118
讯	-1119
传	-1120
帝	-1121
楽	-1122
矣	-1123
虔	-1124
证	-1125
询	-1126
份	-1127
品	-1128
哆	-1129
悦	-1130
挚	-1131
毋	-1132
长	-1133
闻	-1134
柄	-1135
直	-1136
察	-1137
恐	-1138
接	-1139
整	-1140
务	-1141
密	-1142
式	-1143
忆	-1144
曾	-1145
示	-1146
转	-1147
分	-1148
惧	-1149
瓦	-1150
罕	-1151
衣	-1152
诗	-1153
养	-1154
叹	-1155
吉	-1156
否	-1157
境	-1158
月	-1159
用	-1160
祥	-1161
决	-1162
嘎	-1163
学	-1164
恒	-1165
手	-1166
敬	-1167
石	-1168
调	-1169
超	-1170
属	-1171
往	-1172
晓	-1173
永	-1174
活	-1175
章	-1176
议	-1177
诫	-1178
载	-1179
器	-1180
坦	-1181
少	-1182
携	-1183
政	-1184
照	-1185
精	-1186
价	-1187
喇	-1188
家	-1189
杯	-1190
祀	-1191
良	-1192
诰	-1193
争	-1194
仪	-1195
契	-1196
她	-1197
职	-1198
般	-1199
视	-1200
辉	-1201
进	-1202
魄	-1203
依	-1204
儿	-1205
归	-1206
数	-1207
珊	-1208
瑚	-1209
疑	-1210
赋	-1211
踏	-1212
允	-1213
呼	-1214
备	-1215
放	-1216
猎	-1217
诚	-1218
兵	-1219
师	-1220
才	-1221
承	-1222
报	-1223
气	-1224
谓	-1225
责	-1226
造	-1227
露	-1228
云	-1229
值	-1230
幻	-1231
消	-1232
演	-1233
绝	-1234
高	-1235
鱼	-1236
刻	-1237
双	-1238
最	-1239
服	-1240
极	-1241
笼	-1242
线	-1243
戏	-1244
村	-1245
续	-1246
谋	-1247
判	-1248
喻	-1249
妖	-1250
策	-1251
索	-1252
臻	-1253
还	-1254
追	-1255
骸	-1256
外	-1257
审	-1258
岸	-1259
律	-1260
择	-1261
杀	-1262
称	-1263
筏	-1264
裙	-1265
逐	-1266
遍	-1267
镜	-1268
雅	-1269
哀	-1270
序	-1271
悟	-1272
效	-1273
旧	-1274
欣	-1275
礼	-1276
立	-1277
纳	-1278
许	-1279
鸣	-1280
军	-1281
划	-1282
协	-1283
弃	-1284
敌	-1285
笑	-1286
第	-1287
蜜	-1288
雄	-1289
青	-1290
做	-1291
华	-1292
悲	-1293
换	-1294
沃	-1295
辞	-1296
阳	-1297
预	-1298
别	-1299
场	-1300
奏	-1301
展	-1302
差	-1303
庇	-1304
树	-1305
盒	-1306
管	-1307
赐	-1308
常	-1309
座	-1310
指	-1311
湖	-1312
留	-1313
置	-1314
诉	-1315
领	-1316
两	-1317
危	-1318
史	-1319
吹	-1320
噫	-1321
宫	-1322
导	-1323
引	-1324
弥	-1325
忒	-1326
您	-1327
曲	-1328
盖	-1329
节	-1330
貌	-1331
迷	-1332
雪	-1333
颂	-1334
佩	-1335
十	-1336
叠	-1337
吃	-1338
尽	-1339
殿	-1340
治	-1341
派	-1342
蜂	-1343
谈	-1344
远	-1345
鸟	-1346
几	-1347
口	-1348
味	-1349
土	-1350
委	-1351
姿	-1352
小	-1353
幸	-1354
很	-1355
慰	-1356
拿	-1357
毁	-1358
点	-1359
畏	-1360
纯	-1361
苦	-1362
赞	-1363
躯	-1364
乱	-1365
亮	-1366
夺	-1367
好	-1368
岂	-1369
工	-1370
昧	-1371
荣	-1372
虚	-1373
A	-1374
亡	-1375
仰	-1376
奶	-1377
端	-1378
编	-1379
谕	-1380
o	-1381
妻	-1382
忘	-1383
斗	-1384
料	-1385
暴	-1386
更	-1387
犬	-1388
脱	-1389
计	-1390
词	-1391
遭	-1392
颅	-1393
龙	-1394
l	-1395
伤	-1396
六	-1397
卜	-1398
唱	-1399
壤	-1400
平	-1401
录	-1402
拟	-1403
易	-1404
期	-1405
概	-1406
清	-1407
程	-1408
群	-1409
臣	-1410
规	-1411
触	-1412
边	-1413
运	-1414
邸	-1415
久	-1416
公	-1417
及	-1418
台	-1419
咒	-1420
堂	-1421
打	-1422
目	-1423
究	-1424
荡	-1425
营	-1426
近	-1427
飞	-1428
万	-1429
习	-1430
互	-1431
仅	-1432
卫	-1433
唤	-1434
富	-1435
尺	-1436
执	-1437
授	-1438
提	-1439
断	-1440
旋	-1441
构	-1442
每	-1443
督	-1444
获	-1445
隔	-1446
驮	-1447
y	-1448
似	-1449
余	-1450
商	-1451
始	-1452
宴	-1453
封	-1454
帕	-1455
府	-1456
径	-1457
恩	-1458
悚	-1459
慕	-1460
抚	-1461
球	-1462
粹	-1463
红	-1464
耀	-1465
莫	-1466
装	-1467
足	-1468
轻	-1469
限	-1470
雨	-1471
伴	-1472
声	-1473
姐	-1474
宝	-1475
廷	-1476
彰	-1477
怪	-1478
总	-1479
支	-1480
改	-1481
核	-1482
根	-1483
秘	-1484
组	-1485
艾	-1486
融	-1487
袭	-1488
谢	-1489
顿	-1490
验	-1491
付	-1492
共	-1493
助	-1494
勒	-1495
启	-1496
幼	-1497
拜	-1498
收	-1499
术	-1500
献	-1501
破	-1502
突	-1503
答	-1504
胎	-1505
讨	-1506
诺	-1507
途	-1508
配	-1509
阵	-1510
鬼	-1511
?	-1512
E	-1513
O	-1514
伪	-1515
妾	-1516
婆	-1517
层	-1518
忑	-1519
探	-1520
显	-1521
标	-1522
次	-1523
狂	-1524
痛	-1525
童	-1526
符	-1527
纶	-1528
绪	-1529
让	-1530
设	-1531
走	-1532
伽	-1533
候	-1534
吸	-1535
坏	-1536
堕	-1537
士	-1538
客	-1539
害	-1540
帼	-1541
年	-1542
弱	-1543
强	-1544
汇	-1545
涉	-1546
灾	-1547
玩	-1548
私	-1549
税	-1550
翼	-1551
联	-1552
背	-1553
艺	-1554
袍	-1555
赠	-1556
越	-1557
、	-1558
且	-1559
五	-1560
仿	-1561
住	-1562
充	-1563
据	-1564
景	-1565
殊	-1566
滑	-1567
漫	-1568
率	-1569
珠	-1570
确	-1571
纹	-1572
荒	-1573
蔷	-1574
薇	-1575
虽	-1576
蛋	-1577
衡	-1578
觅	-1579
负	-1580
错	-1581
隐	-1582
首	-1583
鲁	-1584
S	-1585
享	-1586
亵	-1587
借	-1588
凭	-1589
印	-1590
反	-1591
叶	-1592
号	-1593
吞	-1594
啦	-1595
妹	-1596
姻	-1597
守	-1598
巢	-1599
延	-1600
弟	-1601
彩	-1602
恭	-1603
推	-1604
模	-1605
欢	-1606
沙	-1607
涌	-1608
溪	-1609
溯	-1610
焦	-1611
画	-1612
脚	-1613
致	-1614
船	-1615
表	-1616
谑	-1617
跪	-1618
遗	-1619
遮	-1620
避	-1621
阅	-1622
队	-1623
际	-1624
东	-1625
企	-1626
倾	-1627
假	-1628
停	-1629
写	-1630
刀	-1631
创	-1632
加	-1633
升	-1634
响	-1635
四	-1636
城	-1637
壮	-1638
忧	-1639
怒	-1640
戮	-1641
日	-1642
昏	-1643
映	-1644
暂	-1645
步	-1646
毒	-1647
注	-1648
环	-1649
盗	-1650
禀	-1651
肉	-1652
草	-1653
蒙	-1654
诅	-1655
逻	-1656
遁	-1657
遥	-1658
阶	-1659
骨	-1660
鹅	-1661
鹜	-1662
↓	-1663
举	-1664
兰	-1665
单	-1666
厌	-1667
居	-1668
底	-1669
抉	-1670
抛	-1671
抱	-1672
摆	-1673
撼	-1674
散	-1675
案	-1676
残	-1677
混	-1678
潮	-1679
糖	-1680
纷	-1681
绎	-1682
缘	-1683
耦	-1684
肇	-1685
英	-1686
货	-1687
迫	-1688
逃	-1689
闭	-1690
除	-1691
鲜	-1692
典	-1693
初	-1694
刹	-1695
劫	-1696
卷	-1697
堡	-1698
宿	-1699
寓	-1700
建	-1701
征	-1702
技	-1703
抽	-1704
挂	-1705
撰	-1706
束	-1707
泥	-1708
渎	-1709
烟	-1710
狩	-1711
眠	-1712
祝	-1713
秩	-1714
窦	-1715
素	-1716
缺	-1717
茎	-1718
虹	-1719
褚	-1720
辑	-1721
选	-1722
逝	-1723
速	-1724
遣	-1725
钻	-1726
雌	-1727
顺	-1728
P	-1729
保	-1730
准	-1731
势	-1732
区	-1733
占	-1734
参	-1735
叙	-1736
召	-1737
嗣	-1738
奔	-1739
妥	-1740
孔	-1741
干	-1742
役	-1743
循	-1744
微	-1745
捕	-1746
掉	-1747
控	-1748
措	-1749
朵	-1750
浪	-1751
独	-1752
狱	-1753
皮	-1754
盛	-1755
眷	-1756
睡	-1757
祸	-1758
窥	-1759
继	-1760
缔	-1761
蕊	-1762
裸	-1763
讲	-1764
该	-1765
谣	-1766
赦	-1767
蹈	-1768
逢	-1769
醒	-1770
阇	-1771
阐	-1772
V	-1773
优	-1774
侧	-1775
免	-1776
冥	-1777
击	-1778
医	-1779
啼	-1780
妇	-1781
尊	-1782
山	-1783
巧	-1784
徊	-1785
怀	-1786
户	-1787
投	-1788
描	-1789
撕	-1790
斥	-1791
朴	-1792
条	-1793
欺	-1794
测	-1795
满	-1796
皇	-1797
窗	-1798
肢	-1799
范	-1800
藻	-1801
誓	-1802
贤	-1803
败	-1804
轮	-1805
辅	-1806
铃	-1807
韦	-1808
题	-1809
乏	-1810
乘	-1811
伏	-1812
供	-1813
倒	-1814
冷	-1815
剧	-1816
含	-1817
吻	-1818
员	-1819
咏	-1820
咔	-1821
图	-1822
均	-1823
塞	-1824
射	-1825
嵌	-1826
左	-1827
帮	-1828
庭	-1829
徘	-1830
慨	-1831
扰	-1832
暗	-1833
朝	-1834
止	-1835
段	-1836
毛	-1837
泊	-1838
泪	-1839
浩	-1840
液	-1841
深	-1842
滩	-1843
灼	-1844
片	-1845
电	-1846
禁	-1847
稀	-1848
绘	-1849
统	-1850
绵	-1851
绿	-1852
羽	-1853
耆	-1854
脏	-1855
舍	-1856
蕴	-1857
薄	-1858
话	-1859
误	-1860
诱	-1861
谬	-1862
贞	-1863
辈	-1864
连	-1865
邻	-1866
阴	-1867
阻	-1868
驱	-1869
魁	-1870
默	-1871
F	-1872
X	-1873
ā	-1874
件	-1875
俗	-1876
傅	-1877
僚	-1878
况	-1879
净	-1880
刚	-1881
叔	-1882
垢	-1883
宇	-1884
完	-1885
尚	-1886
币	-1887
弦	-1888
悖	-1889
慈	-1890
找	-1891
摇	-1892
播	-1893
晰	-1894
晶	-1895
枝	-1896
污	-1897
沉	-1898
琉	-1899
甚	-1900
畴	-1901
病	-1902
级	-1903
绣	-1904
虑	-1905
袖	-1906
裂	-1907
角	-1908
跃	-1909
辩	-1910
送	-1911
郎	-1912
阂	-1913
院	-1914
饰	-1915
L	-1916
W	-1917
~	-1918
佐	-1919
侣	-1920
冲	-1921
列	-1922
办	-1923
匿	-1924
压	-1925
右	-1926
吐	-1927
吠	-1928
嗒	-1929
噬	-1930
壳	-1931
奋	-1932
娃	-1933
宗	-1934
幽	-1935
悔	-1936
愚	-1937
戒	-1938
抵	-1939
拂	-1940
攀	-1941
既	-1942
昼	-1943
某	-1944
查	-1945
泉	-1946
洁	-1947
温	-1948
灌	-1949
焰	-1950
狐	-1951
略	-1952
瞬	-1953
穿	-1954
算	-1955
籍	-1956
翅	-1957
茶	-1958
药	-1959
蜓	-1960
蜻	-1961
裹	-1962
资	-1963
践	-1964
邀	-1965
野	-1966
链	-1967
震	-1968
项	-1969
颜	-1970
G	-1971
Y	-1972
i	-1973
—	-1974
买	-1975
产	-1976
今	-1977
佑	-1978
侍	-1979
八	-1980
册	-1981
冰	-1982
劝	-1983
厅	-1984
咬	-1985
哲	-1986
坐	-1987
奉	-1988
宣	-1989
幕	-1990
庸	-1991
弄	-1992
怎	-1993
悬	-1994
悸	-1995
愤	-1996
扁	-1997
援	-1998
替	-1999
木	-2000
毕	-2001
沛	-2002
洞	-2003
浸	-2004
渗	-2005
灯	-2006
炼	-2007
热	-2008
牵	-2009
琴	-2010
百	-2011
监	-2012
簇	-2013
缚	-2014
考	-2015
耳	-2016
耶	-2017
聩	-2018
著	-2019
虫	-2020
蛸	-2021
覆	-2022
试	-2023
谨	-2024
贝	-2025
跳	-2026
辰	-2027
迎	-2028
酒	-2029
采	-2030
铭	-2031
靠	-2032
颤	-2033
严	-2034
仏	-2035
伐	-2036
伙	-2037
伦	-2038
侵	-2039
倪	-2040
兽	-2041
凝	-2042
劳	-2043
包	-2044
卑	-2045
叫	-2046
圆	-2047
型	-2048
奴	-2049
妃	-2050
娘	-2051
嬉	-2052
孤	-2053
屋	-2054
崇	-2055
悯	-2056
懂	-2057
抗	-2058
担	-2059
施	-2060
旁	-2061
朗	-2062
杂	-2063
材	-2064
栖	-2065
植	-2066
殴	-2067
泡	-2068
洋	-2069
滋	-2070
漂	-2071
潜	-2072
澜	-2073
烧	-2074
犹	-2075
盘	-2076
瞒	-2077
研	-2078
禽	-2079
稳	-2080
简	-2081
羊	-2082
耻	-2083
胸	-2084
脑	-2085
臂	-2086
蔽	-2087
衰	-2088
褶	-2089
谱	-2090
退	-2091
透	-2092
遵	-2093
铸	-2094
铺	-2095
静	-2096
香	-2097
鹊	-2098
黄	-2099
龢	-2100
丧	-2101
亨	-2102
仇	-2103
仸	-2104
佛	-2105
例	-2106
储	-2107
卵	-2108
另	-2109
嘘	-2110
团	-2111
困	-2112
坚	-2113
威	-2114
寂	-2115
尸	-2116
市	-2117
庆	-2118
床	-2119
库	-2120
悠	-2121
惶	-2122
愁	-2123
房	-2124
扯	-2125
批	-2126
折	-2127
晚	-2128
架	-2129
染	-2130
校	-2131
歹	-2132
氛	-2133
池	-2134
渐	-2135
漏	-2136
爆	-2137
玉	-2138
窘	-2139
箴	-2140
糕	-2141
紊	-2142
羞	-2143
老	-2144
肌	-2145
胞	-2146
舅	-2147
航	-2148
芒	-2149
茧	-2150
街	-2151
补	-2152
誉	-2153
训	-2154
讳	-2155
访	-2156
诵	-2157
读	-2158
贡	-2159
赖	-2160
车	-2161
辱	-2162
适	-2163
邪	-2164
陨	-2165
陷	-2166
隶	-2167
雏	-2168
频	-2169
饮	-2170
┇	-2171
丑	-2172
丘	-2173
丛	-2174
丝	-2175
乃	-2176
他	-2177
剥	-2178
匣	-2179
历	-2180
吟	-2181
唵	-2182
嚼	-2183
埋	-2184
塑	-2185
增	-2186
孙	-2187
季	-2188
尴	-2189
尼	-2190
屠	-2191
张	-2192
弹	-2193
忏	-2194
怖	-2195
怜	-2196
急	-2197
患	-2198
扶	-2199
拥	-2200
排	-2201
摄	-2202
斧	-2203
晕	-2204
柔	-2205
毅	-2206
汐	-2207
泽	-2208
渊	-2209
潭	-2210
炮	-2211
烛	-2212
熟	-2213
爷	-2214
痴	-2215
登	-2216
矢	-2217
窟	-2218
签	-2219
籁	-2220
缠	-2221
翻	-2222
胶	-2223
芽	-2224
苏	-2225
蝉	-2226
褓	-2227
襁	-2228
诠	-2229
诡	-2230
赤	-2231
轰	-2232
输	-2233
违	-2234
递	-2235
键	-2236
闹	-2237
附	-2238
陋	-2239
零	-2240
雾	-2241
革	-2242
顷	-2243
颊	-2244
骗	-2245
龛	-2246
0	-2247
1	-2248
>	-2249
H	-2250
N	-2251
n	-2252
休	-2253
健	-2254
兴	-2255
冀	-2256
冕	-2257
农	-2258
减	-2259
勤	-2260
匠	-2261
匮	-2262
呈	-2263
咎	-2264
哭	-2265
妲	-2266
婴	-2267
嫁	-2268
宙	-2269
帅	-2270
忌	-2271
怠	-2272
怨	-2273
扑	-2274
招	-2275
拾	-2276
振	-2277
掷	-2278
攻	-2279
早	-2280
暧	-2281
朱	-2282
梭	-2283
歉	-2284
毫	-2285
沾	-2286
济	-2287
渴	-2288
溢	-2289
滞	-2290
激	-2291
炸	-2292
状	-2293
玷	-2294
璃	-2295
瓣	-2296
畔	-2297
皱	-2298
盈	-2299
睛	-2300
瞳	-2301
碎	-2302
祖	-2303
移	-2304
稽	-2305
窃	-2306
紧	-2307
繁	-2308
细	-2309
缓	-2310
缴	-2311
聚	-2312
脸	-2313
腐	-2314
膀	-2315
艰	-2316
苑	-2317
荐	-2318
菩	-2319
蛇	-2320
蜕	-2321
裁	-2322
诽	-2323
贫	-2324
踝	-2325
较	-2326
辖	-2327
辛	-2328
钥	-2329
钱	-2330
镇	-2331
隅	-2332
雀	-2333
飘	-2334
饗	-2335
髓	-2336
c	-2337
伊	-2338
伍	-2339
佳	-2340
偈	-2341
兆	-2342
兼	-2343
冠	-2344
刊	-2345
剩	-2346
千	-2347
卖	-2348
厚	-2349
厨	-2350
哥	-2351
喉	-2352
嘚	-2353
园	-2354
围	-2355
固	-2356
圈	-2357
块	-2358
埙	-2359
墓	-2360
夭	-2361
套	-2362
奢	-2363
妄	-2364
姨	-2365
娇	-2366
媛	-2367
嫒	-2368
宏	-2369
宪	-2370
寒	-2371
川	-2372
巡	-2373
庄	-2374
废	-2375
徽	-2376
悄	-2377
惜	-2378
愉	-2379
愧	-2380
慎	-2381
扎	-2382
披	-2383
拒	-2384
掌	-2385
操	-2386
旅	-2387
朋	-2388
林	-2389
枢	-2390
柱	-2391
械	-2392
检	-2393
棱	-2394
沌	-2395
泄	-2396
浮	-2397
淳	-2398
漾	-2399
炽	-2400
燃	-2401
牧	-2402
犯	-2403
珍	-2404
瑜	-2405
瓶	-2406
甘	-2407
甲	-2408
疲	-2409
痕	-2410
益	-2411
睦	-2412
科	-2413
积	-2414
穆	-2415
竽	-2416
筑	-2417
箭	-2418
糊	-2419
糟	-2420
纂	-2421
纠	-2422
络	-2423
绯	-2424
缩	-2425
罩	-2426
股	-2427
肯	-2428
脉	-2429
菊	-2430
蛰	-2431
衍	-2432
觐	-2433
诧	-2434
谤	-2435
贪	-2436
贱	-2437
踪	-2438
返	-2439
迟	-2440
邃	-2441
银	-2442
锈	-2443
锚	-2444
闪	-2445
闲	-2446
险	-2447
陪	-2448
隙	-2449
集	-2450
顶	-2451
顾	-2452
鳞	-2453
齐	-2454
%	-2455
3	-2456
4	-2457
C	-2458
M	-2459
a	-2460
“	-2461
”	-2462
┷	-2463
■	-2464
七	-2465
专	-2466
丢	-2467
伸	-2468
低	-2469
侈	-2470
侦	-2471
偎	-2472
偷	-2473
僧	-2474
冒	-2475
凋	-2476
剑	-2477
匙	-2478
半	-2479
博	-2480
司	-2481
吮	-2482
咀	-2483
啄	-2484
喧	-2485
壁	-2486
够	-2487
奈	-2488
娶	-2489
婉	-2490
媾	-2491
宜	-2492
寄	-2493
寿	-2494
尬	-2495
局	-2496
屑	-2497
巨	-2498
怕	-2499
恍	-2500
恨	-2501
惰	-2502
慢	-2503
懒	-2504
懵	-2505
截	-2506
抖	-2507
拍	-2508
拔	-2509
拘	-2510
拼	-2511
挠	-2512
掠	-2513
掩	-2514
揭	-2515
摘	-2516
敢	-2517
春	-2518
暇	-2519
暖	-2520
枯	-2521
桥	-2522
楚	-2523
榻	-2524
汗	-2525
河	-2526
泛	-2527
濒	-2528
烁	-2529
烈	-2530
版	-2531
牌	-2532
短	-2533
硼	-2534
碌	-2535
秋	-2536
穴	-2537
竭	-2538
篮	-2539
粉	-2540
粟	-2541
粼	-2542
网	-2543
署	-2544
耨	-2545
耽	-2546
聪	-2547
肤	-2548
胀	-2549
舱	-2550
苞	-2551
苯	-2552
蓝	-2553
蔑	-2554
虐	-2555
蚀	-2556
螺	-2557
蠕	-2558
览	-2559
讥	-2560
谅	-2561
谦	-2562
赏	-2563
趁	-2564
轨	-2565
迁	-2566
迅	-2567
逆	-2568
遐	-2569
鄙	-2570
鉴	-2571
钗	-2572
钝	-2573
钨	-2574
镶	-2575
陈	-2576
障	-2577
颗	-2578
驻	-2579
骑	-2580
魅	-2581
+	-2582
2	-2583
Q	-2584
u	-2585
ī	-2586
↑	-2587
《	-2588
》	-2589
九	-2590
乞	-2591
介	-2592
伟	-2593
促	-2594
傍	-2595
兑	-2596
冬	-2597
凛	-2598
刷	-2599
剂	-2600
削	-2601
卡	-2602
厄	-2603
呀	-2604
呓	-2605
呵	-2606
咕	-2607
咸	-2608
哦	-2609
唏	-2610
啃	-2611
嗅	-2612
嗔	-2613
嘲	-2614
嚎	-2615
坟	-2616
塌	-2617
夏	-2618
夕	-2619
夙	-2620
媚	-2621
嫉	-2622
孪	-2623
宽	-2624
寰	-2625
尝	-2626
席	-2627
广	-2628
康	-2629
弗	-2630
快	-2631
恕	-2632
恳	-2633
恼	-2634
惚	-2635
惫	-2636
扇	-2637
抢	-2638
挥	-2639
捏	-2640
搏	-2641
敲	-2642
斋	-2643
旬	-2644
昵	-2645
晒	-2646
暮	-2647
末	-2648
杰	-2649
板	-2650
枕	-2651
档	-2652
梁	-2653
梯	-2654
梵	-2655
歼	-2656
殆	-2657
沦	-2658
沿	-2659
泼	-2660
浇	-2661
浊	-2662
涯	-2663
漠	-2664
焚	-2665
爬	-2666
牙	-2667
狭	-2668
甄	-2669
皈	-2670
睐	-2671
瞥	-2672
矩	-2673
碍	-2674
碑	-2675
稠	-2676
稿	-2677
窕	-2678
站	-2679
笃	-2680
笔	-2681
笨	-2682
筹	-2683
箱	-2684
篇	-2685
籽	-2686
粒	-2687
粘	-2688
纸	-2689
综	-2690
缄	-2691
罢	-2692
聘	-2693
胆	-2694
腑	-2695
膜	-2696
舰	-2697
苟	-2698
苹	-2699
虎	-2700
衔	-2701
裳	-2702
警	-2703
讽	-2704
谐	-2705
贩	-2706
贺	-2707
趋	-2708
踩	-2709
迸	-2710
逸	-2711
酬	-2712
酷	-2713
醉	-2714
雇	-2715
雕	-2716
鞋	-2717
颠	-2718
饥	-2719
鲸	-2720
麻	-2721
5	-2722
T	-2723
r	-2724
±	-2725
ū	-2726
Ψ	-2727
丰	-2728
乡	-2729
亘	-2730
仓	-2731
佣	-2732
侯	-2733
俱	-2734
偏	-2735
偕	-2736
偿	-2737
傲	-2738
僵	-2739
兄	-2740
刺	-2741
副	-2742
剿	-2743
勇	-2744
匪	-2745
厮	-2746
吼	-2747
哗	-2748
售	-2749
啣	-2750
喊	-2751
嘴	-2752
嚣	-2753
培	-2754
堪	-2755
墟	-2756
夹	-2757
奖	-2758
妆	-2759
妒	-2760
姊	-2761
婪	-2762
孢	-2763
孵	-2764
寝	-2765
屈	-2766
届	-2767
峰	-2768
帘	-2769
幂	-2770
廉	-2771
忤	-2772
怡	-2773
怯	-2774
恰	-2775
惯	-2776
慌	-2777
憬	-2778
懦	-2779
戟	-2780
戴	-2781
戾	-2782
拆	-2783
拈	-2784
拓	-2785
拖	-2786
按	-2787
挑	-2788
挟	-2789
挡	-2790
挽	-2791
捞	-2792
掏	-2793
握	-2794
搅	-2795
摒	-2796
摸	-2797
摹	-2798
撞	-2799
擦	-2800
旷	-2801
昌	-2802
昔	-2803
晃	-2804
曳	-2805
松	-2806
栋	-2807
梢	-2808
梳	-2809
槛	-2810
樱	-2811
檀	-2812
武	-2813
殖	-2814
油	-2815
浴	-2816
涕	-2817
淹	-2818
渲	-2819
溜	-2820
滚	-2821
滥	-2822
潢	-2823
瀚	-2824
炬	-2825
燥	-2826
牟	-2827
琐	-2828
瑗	-2829
瑰	-2830
瑷	-2831
畅	-2832
疏	-2833
疯	-2834
癫	-2835
盏	-2836
盟	-2837
盲	-2838
瞻	-2839
码	-2840
砂	-2841
硕	-2842
磨	-2843
竞	-2844
筋	-2845
箔	-2846
累	-2847
纤	-2848
纺	-2849
绊	-2850
绕	-2851
绽	-2852
罚	-2853
耗	-2854
肃	-2855
肴	-2856
腕	-2857
腥	-2858
腾	-2859
膨	-2860
舷	-2861
芥	-2862
芯	-2863
苗	-2864
茫	-2865
荫	-2866
莲	-2867
莹	-2868
蚁	-2869
蛊	-2870
袒	-2871
袤	-2872
詹	-2873
译	-2874
诓	-2875
谄	-2876
谊	-2877
谴	-2878
费	-2879
赶	-2880
跋	-2881
距	-2882
躲	-2883
躺	-2884
软	-2885
逾	-2886
郑	-2887
针	-2888
铁	-2889
锦	-2890
闷	-2891
闺	-2892
阔	-2893
阖	-2894
阙	-2895
阱	-2896
陌	-2897
陶	-2898
雷	-2899
韬	-2900
页	-2901
颈	-2902
飒	-2903
餐	-2904
饭	-2905
饲	-2906
饶	-2907
饼	-2908
鸾	-2909
鼎	-2910
鼓	-2911
.	-2912
6	-2913
7	-2914
B	-2915
I	-2916
x	-2917
Ā	-2918
ē	-2919
ō	-2920
→	-2921
丈	-2922
乖	-2923
亿	-2924
伶	-2925
傀	-2926
儡	-2927
冤	-2928
凶	-2929
割	-2930
劈	-2931
勃	-2932
勉	-2933
叉	-2934
哪	-2935
哺	-2936
唾	-2937
啸	-2938
嗯	-2939
坛	-2940
坡	-2941
垂	-2942
垄	-2943
垫	-2944
墙	-2945
壎	-2946
央	-2947
娩	-2948
媒	-2949
嫌	-2950
宁	-2951
宅	-2952
寺	-2953
尘	-2954
尾	-2955
崩	-2956
巍	-2957
巷	-2958
店	-2959
庙	-2960
庞	-2961
弊	-2962
彷	-2963
徨	-2964
忍	-2965
忙	-2966
忠	-2967
惋	-2968
惨	-2969
惩	-2970
愕	-2971
慑	-2972
憧	-2973
懊	-2974
扫	-2975
扮	-2976
把	-2977
抑	-2978
抓	-2979
押	-2980
拌	-2981
拐	-2982
拙	-2983
拨	-2984
拯	-2985
拳	-2986
拽	-2987
挣	-2988
捍	-2989
损	-2990
捷	-2991
揣	-2992
搀	-2993
摧	-2994
撤	-2995
撵	-2996
攥	-2997
敕	-2998
敞	-2999
斡	-3000
晦	-3001
朽	-3002
杆	-3003
杖	-3004
析	-3005
枪	-3006
柜	-3007
栽	-3008
桌	-3009
桎	-3010
梏	-3011
棘	-3012
森	-3013
楼	-3014
榷	-3015
檐	-3016
歇	-3017
歧	-3018
毙	-3019
汁	-3020
汞	-3021
沐	-3022
沟	-3023
泌	-3024
泰	-3025
洗	-3026
津	-3027
洽	-3028
浆	-3029
浑	-3030
浓	-3031
涂	-3032
涅	-3033
涎	-3034
涡	-3035
涩	-3036
添	-3037
湍	-3038
湮	-3039
湿	-3040
溅	-3041
滤	-3042
漩	-3043
炙	-3044
熄	-3045
熵	-3046
爽	-3047
牢	-3048
牲	-3049
牺	-3050
狙	-3051
狮	-3052
狼	-3053
猛	-3054
猜	-3055
猥	-3056
瑟	-3057
璀	-3058
璨	-3059
甜	-3060
番	-3061
疚	-3062
瘤	-3063
癌	-3064
皿	-3065
盆	-3066
眸	-3067
砍	-3068
砾	-3069
碰	-3070
碳	-3071
磋	-3072
祟	-3073
窄	-3074
竹	-3075
笙	-3076
粕	-3077
紫	-3078
絮	-3079
纵	-3080
绮	-3081
绳	-3082
缀	-3083
缝	-3084
羁	-3085
羅	-3086
羔	-3087
耍	-3088
聆	-3089
肛	-3090
脊	-3091
脐	-3092
脖	-3093
腰	-3094
舌	-3095
舒	-3096
芜	-3097
苛	-3098
荆	-3099
莖	-3100
菜	-3101
蓄	-3102
蔓	-3103
薪	-3104
藐	-3105
虏	-3106
蛛	-3107
蛾	-3108
蟒	-3109
衷	-3110
裕	-3111
褥	-3112
诀	-3113
诈	-3114
诲	-3115
豪	-3116
购	-3117
贴	-3118
贿	-3119
赂	-3120
赘	-3121
赢	-3122
趾	-3123
跟	-3124
跨	-3125
踵	-3126
蹭	-3127
轿	-3128
辐	-3129
辜	-3130
逊	-3131
逛	-3132
邮	-3133
酱	-3134
銮	-3135
鎏	-3136
钟	-3137
钦	-3138
铅	-3139
镌	-3140
闯	-3141
阁	-3142
防	-3143
隘	-3144
霍	-3145
须	-3146
顽	-3147
餮	-3148
饱	-3149
馅	-3150
馐	-3151
驳	-3152
骚	-3153
鳍	-3154
鹿	-3155
黎	-3156
鼻	-3157
龄	-3158
!	-3159
D	-3160
J	-3161
K	-3162
R	-3163
Z	-3164
b	-3165
v	-3166
z	-3167
à	-3168
á	-3169
↖	-3170
↙	-3171
└	-3172
┘	-3173
┬	-3174
丞	-3175
丸	-3176
亏	-3177
井	-3178
亭	-3179
仃	-3180
仑	-3181
仙	-3182
估	-3183
侃	-3184
侮	-3185
俊	-3186
俐	-3187
俩	-3188
俪	-3189
俭	-3190
俯	-3191
倍	-3192
倘	-3193
催	-3194
僭	-3195
僻	-3196
儆	-3197
兀	-3198
兔	-3199
党	-3200
兜	-3201
冢	-3202
冻	-3203
凄	-3204
凌	-3205
凑	-3206
函	-3207
凿	-3208
刍	-3209
刑	-3210
刨	-3211
刮	-3212
券	-3213
剖	-3214
剪	-3215
劣	-3216
努	-3217
励	-3218
劲	-3219
勋	-3220
北	-3221
卒	-3222
南	-3223
卧	-3224
卸	-3225
厢	-3226
厥	-3227
叛	-3228
句	-3229
叨	-3230
叮	-3231
吓	-3232
吝	-3233
吽	-3234
咙	-3235
咫	-3236
咯	-3237
咽	-3238
哼	-3239
哽	-3240
唆	-3241
唇	-3242
唐	-3243
唔	-3244
喂	-3245
喙	-3246
嗓	-3247
嗡	-3248
嗤	-3249
嘈	-3250
嘱	-3251
嘶	-3252
嘹	-3253
噌	-3254
噪	-3255
噱	-3256
嚓	-3257
囚	-3258
圾	-3259
垃	-3260
垮	-3261
堵	-3262
填	-3263
塾	-3264
夷	-3265
姝	-3266
娑	-3267
娟	-3268
娼	-3269
嫂	-3270
孰	-3271
孱	-3272
宦	-3273
宰	-3274
寐	-3275
寡	-3276
尖	-3277
尤	-3278
屁	-3279
屏	-3280
屡	-3281
岁	-3282
岔	-3283
岗	-3284
崖	-3285
帚	-3286
帛	-3287
帷	-3288
幅	-3289
庶	-3290
廊	-3291
弈	-3292
弓	-3293
彪	-3294
彻	-3295
徵	-3296
忾	-3297
怵	-3298
恤	-3299
恬	-3300
悍	-3301
惇	-3302
惕	-3303
惘	-3304
惠	-3305
惦	-3306
惭	-3307
愫	-3308
憾	-3309
懈	-3310
扉	-3311
扩	-3312
扭	-3313
抄	-3314
抹	-3315
拗	-3316
拦	-3317
括	-3318
拭	-3319
挖	-3320
挤	-3321
挪	-3322
捐	-3323
捡	-3324
捧	-3325
捻	-3326
掂	-3327
掘	-3328
掸	-3329
揪	-3330
搁	-3331
搜	-3332
搞	-3333
摊	-3334
摔	-3335
撑	-3336
撩	-3337
撬	-3338
擎	-3339
敏	-3340
敛	-3341
斑	-3342
旗	-3343
昨	-3344
晋	-3345
曙	-3346
朦	-3347
杜	-3348
枉	-3349
枚	-3350
栏	-3351
栗	-3352
桅	-3353
棋	-3354
椅	-3355
榜	-3356
槃	-3357
槽	-3358
欠	-3359
款	-3360
殁	-3361
殇	-3362
殉	-3363
殚	-3364
殷	-3365
毂	-3366
氏	-3367
氙	-3368
氢	-3369
氪	-3370
汤	-3371
汹	-3372
沫	-3373
沸	-3374
泣	-3375
泯	-3376
泵	-3377
洒	-3378
浃	-3379
浅	-3380
涓	-3381
涛	-3382
淆	-3383
淋	-3384
淫	-3385
淬	-3386
渡	-3387
溶	-3388
溺	-3389
漓	-3390
潇	-3391
潘	-3392
瀑	-3393
灰	-3394
灶	-3395
灸	-3396
炉	-3397
炫	-3398
烂	-3399
烤	-3400
烩	-3401
焕	-3402
煌	-3403
熏	-3404
熙	-3405
爪	-3406
爵	-3407
爻	-3408
牛	-3409
狞	-3410
狡	-3411
狰	-3412
狸	-3413
猖	-3414
猫	-3415
猴	-3416
猿	-3417
珀	-3418
班	-3419
琢	-3420
瑕	-3421
瑶	-3422
瓅	-3423
甸	-3424
疫	-3425
症	-3426
痫	-3427
痰	-3428
瘁	-3429
瘟	-3430
瘠	-3431
瘢	-3432
瘾	-3433
癣	-3434
盯	-3435
盼	-3436
省	-3437
眩	-3438
睁	-3439
睑	-3440
瞌	-3441
瞩	-3442
矗	-3443
矜	-3444
矫	-3445
砖	-3446
砸	-3447
础	-3448
硬	-3449
碗	-3450
磊	-3451
磷	-3452
祉	-3453
票	-3454
禅	-3455
秀	-3456
秽	-3457
稍	-3458
稻	-3459
穹	-3460
窈	-3461
窍	-3462
窒	-3463
窜	-3464
窝	-3465
竣	-3466
笞	-3467
筛	-3468
箎	-3469
篡	-3470
篪	-3471
糅	-3472
糙	-3473
縠	-3474
纬	-3475
纭	-3476
纲	-3477
绛	-3478
绞	-3479
绥	-3480
缈	-3481
缉	-3482
缥	-3483
缪	-3484
缸	-3485
罄	-3486
罐	-3487
罔	-3488
罡	-3489
羡	-3490
羸	-3491
翕	-3492
翘	-3493
耄	-3494
耋	-3495
耕	-3496
聊	-3497
聋	-3498
肝	-3499
肠	-3500
肥	-3501
肮	-3502
肺	-3503
肿	-3504
胁	-3505
胃	-3506
胖	-3507
胧	-3508
胯	-3509
脂	-3510
腔	-3511
腻	-3512
腿	-3513
膛	-3514
舐	-3515
舔	-3516
舟	-3517
舸	-3518
艳	-3519
芊	-3520
苍	-3521
莅	-3522
莽	-3523
萃	-3524
萌	-3525
萦	-3526
萧	-3527
葬	-3528
蒸	-3529
藉	-3530
藓	-3531
藕	-3532
藤	-3533
蘸	-3534
虾	-3535
蚕	-3536
蜡	-3537
蠢	-3538
衙	-3539
衢	-3540
衬	-3541
袄	-3542
袴	-3543
裟	-3544
裤	-3545
裱	-3546
裾	-3547
褪	-3548
襟	-3549
襢	-3550
詀	-3551
订	-3552
讶	-3553
评	-3554
诋	-3555
诏	-3556
诘	-3557
详	-3558
谍	-3559
谏	-3560
谭	-3561
谷	-3562
豫	-3563
账	-3564
