<unk>	0
<pad>	0
<bos>	0
<eos>	0
<mask>	0
<ghost>	0
一种	-0
人类	-1
我们	-2
本身	-3
这种	-4
一个	-5
是一种	-6
那么	-7
可以	-8
没有	-9
属性	-10
),	-11
思想	-12
但是	-13
所以	-14
不是	-15
社会	-16
时代	-17
如果	-18
人类的	-19
人的	-20
或者	-21
社群	-22
问题	-23
判断	-24
成为	-25
自己	-26
什么	-27
未来	-28
机制	-29
力量	-30
就是	-31
无论	-32
存在	-33
态的	-34
真正	-35
无法	-36
必要	-37
变革	-38
必然	-39
知识	-40
必须	-41
这些	-42
知道	-43
形式	-44
而是	-45
不仅	-46
人们	-47
如何	-48
状态	-49
一定	-50
则是	-51
虽然	-52
需要	-53
成为了	-54
生命	-55
组织	-56
功能	-57
建立	-58
这里	-59
往往	-60
情况	-61
抽象	-62
精神	-63
观念	-64
条件	-65
还是	-66
一点	-67
价值	-68
体的	-69
并不	-70
简单	-71
自然	-72
行动	-73
匹配	-74
本质	-75
矛盾	-76
”,	-77
一切	-78
事实	-79
出现	-80
即便	-81
下的	-82
其他	-83
意志	-84
的是	-85
变革者	-86
来说	-87
标准	-88
正是	-89
一样	-90
凝聚	-91
如此	-92
相对	-93
行为	-94
这个	-95
重要	-96
的人	-97
程度	-98
自我	-99
都是	-100
本身的	-101
这一点	-102
东西	-103
两种	-104
作为	-105
基本	-106
整个	-107
方式	-108
物自	-109
在这里	-110
并不是	-111
真正的	-112
动态	-113
越是	-114
运动	-115
健康	-116
原始	-117
只是	-118
因为	-119
工作	-120
是否	-121
来自	-122
超越	-123
不同	-124
世界	-125
也是	-126
决定	-127
分支	-128
环境	-129
系统	-130
避免	-131
简单的	-132
从而	-133
任何	-134
关系	-135
内部	-136
取决	-137
基于	-138
一个人	-139
必要的	-140
思想的	-141
的一种	-142
不能	-143
原象	-144
影响	-145
思考	-146
流动	-147
要想	-148
造成	-149
的力量	-150
的问题	-151
而是一种	-152
一旦	-153
依然	-154
利益	-155
改变	-156
生活	-157
面对	-158
必然要	-159
上的	-160
乃至	-161
体现	-162
完全	-163
幻想	-164
恶魔	-165
文化	-166
运营	-167
除了	-168
情况下	-169
绝不是	-170
变化	-171
可能	-172
复制	-173
多数	-174
开始	-175
理解	-176
稳定	-177
脱离	-178
质量	-179
转化	-180
部分	-181
取决于	-182
可避免	-183
时代的	-184
组织的	-185
中的	-186
准确	-187
实际	-188
对于	-189
应该	-190
怎么	-191
模式	-192
注意	-193
生存	-194
语言	-195
资源	-196
过程	-197
进行	-198
道路	-199
动态的	-200
在这种	-201
大多数	-202
属性的	-203
未来的	-204
物自体	-205
社群的	-206
如果没有	-207
一些	-208
上面	-209
冲动	-210
冲突	-211
反应	-212
就像	-213
所有	-214
手段	-215
承认	-216
权位	-217
概念	-218
角色	-219
起来	-220
运转	-221
选择	-222
通过	-223
频率	-224
是人类	-225
社会的	-226
时代精神	-227
成为了一种	-228
他们	-229
以外	-230
使用	-231
受到	-232
只有	-233
基础	-234
好的	-235
当然	-236
战争	-237
方案	-238
方法	-239
无疑	-240
源自	-241
甚至	-242
直接	-243
经验	-244
缺陷	-245
链条	-246
决定了	-247
原知识	-248
可以说	-249
建立在	-250
无论是	-251
的必要	-252
的状态	-253
凝聚态的	-254
无可避免	-255
)。	-256
..	-257
临界	-258
产生	-259
作用	-260
判定	-261
到的	-262
办法	-263
心理	-264
意识	-265
时候	-266
有机	-267
权力	-268
框架	-269
物质	-270
经济	-271
能力	-272
诚然	-273
这是	-274
通常	-275
逻辑	-276
领导	-277
魔法	-278
不仅仅	-279
人们的	-280
凝聚态	-281
如此的	-282
的本质	-283
那么就	-284
)”	-285
不可	-286
之间	-287
也好	-288
事情	-289
关键	-290
和谐	-291
品德	-292
复杂	-293
差异	-294
希望	-295
愚蠢	-296
教育	-297
更加	-298
更多	-299
棋盘	-300
现实	-301
符合	-302
解决	-303
评判	-304
首先	-305
也就是	-306
才可以	-307
的存在	-308
重要的	-309
只是一种	-310
不在	-311
不开	-312
不得	-313
先天	-314
发生	-315
只要	-316
心灵	-317
性的	-318
才是	-319
新的	-320
最大	-321
样的	-322
活动	-323
自由	-324
自身	-325
认知	-326
超感	-327
身体	-328
还有	-329
阶段	-330
准确的	-331
存在于	-332
往往是	-333
我们也	-334
我们的	-335
抽象的	-336
注意力	-337
状态的	-338
的东西	-339
的思想	-340
程度上	-341
造成的	-342
也就是说	-343
▁“	-344
丧失	-345
也许	-346
事物	-347
信息	-348
兑换	-349
凭证	-350
制度	-351
前提	-352
唯一	-353
处理	-354
完成	-355
属于	-356
已经	-357
平衡	-358
接受	-359
撬动	-360
来看	-361
构成	-362
永远	-363
清楚	-364
灾难	-365
真实	-366
端点	-367
身上	-368
迭代	-369
通用	-370
限制	-371
除非	-372
了一种	-373
并没有	-374
源自于	-375
的本身	-376
离不开	-377
物自体的	-378
那么一定	-379
那么我们	-380
无可避免的	-381
,“	-382
”。	-383
之道	-384
亦然	-385
付出	-386
传播	-387
充满	-388
决策	-389
分析	-390
利用	-391
危险	-392
原使	-393
变动	-394
后的	-395
周期	-396
商业	-397
地域	-398
天使	-399
就会	-400
承担	-401
改革	-402
模拟	-403
然而	-404
的原	-405
的多	-406
的根	-407
第二	-408
结合	-409
结果	-410
群体	-411
职业	-412
联系	-413
设计	-414
识由	-415
负责	-416
这样	-417
难以	-418
为什么	-419
但是其	-420
匹配的	-421
实际上	-422
形式的	-423
必须要	-424
无疑是	-425
是怎么	-426
本质上	-427
机制的	-428
来自于	-429
的过程	-430
而这种	-431
首先得	-432
原始冲动	-433
所以我们	-434
无论如何	-435
的情况下	-436
在这里我们	-437
)“	-438
”)	-439
不会	-440
不过	-441
于此	-442
交融	-443
具有	-444
内心	-445
分配	-446
同样	-447
后天	-448
否则	-449
在于	-450
天然	-451
失败	-452
定义	-453
定的	-454
实现	-455
容易	-456
少的	-457
工具	-458
引用	-459
成功	-460
拥有	-461
改善	-462
时间	-463
最终	-464
来的	-465
标签	-466
桌子	-467
现代	-468
现在	-469
童话	-470
获得	-471
说明	-472
说的	-473
转换	-474
里面	-475
集合	-476
革命	-477
频段	-478
不知道	-479
事实的	-480
什么是	-481
价值观	-482
思考的	-483
是什么	-484
的事情	-485
的价值	-486
而不是	-487
自己的	-488
这些人	-489
集体的	-490
▁人类的	-491
一个人的	-492
人类本身	-493
则是一种	-494
无法脱离	-495
魔法原使	-496
是怎么样的	-497
业力	-498
业务	-499
主义	-500
之前	-501
之外	-502
也得	-503
人是	-504
代价	-505
偏向	-506
入到	-507
分为	-508
功课	-509
化的	-510
单个	-511
占据	-512
合适	-513
回答	-514
如同	-515
子的	-516
存储	-517
它们	-518
定律	-519
导致	-520
形成	-521
恐惧	-522
意义	-523
感性	-524
指数	-525
提供	-526
方面	-527
服务	-528
架构	-529
某种	-530
正如	-531
此时	-532
特质	-533
理性	-534
相比	-535
看不	-536
碰撞	-537
神经	-538
纯粹	-539
结构	-540
维持	-541
网络	-542
记忆	-543
货币	-544
超限	-545
输出	-546
辩证	-547
过去	-548
道理	-549
随意	-550
随着	-551
静态	-552
靠着	-553
高级	-554
...	-555
▁思想	-556
上面的	-557
会出现	-558
体现在	-559
其中的	-560
其他的	-561
其本身	-562
则需要	-563
基本的	-564
就没有	-565
心理的	-566
意志的	-567
方案的	-568
条件的	-569
虽然有	-570
识由藏	-571
这也是	-572
那么其	-573
链条的	-574
静态的	-575
一种基于	-576
不是一种	-577
因为如此	-578
并不完全	-579
这是一种	-580
不仅仅只是	-581
LO	-582
不断	-583
不管	-584
两者	-585
个人	-586
主观	-587
之为	-588
书录	-589
代表	-590
依赖	-591
信用	-592
先决	-593
全然	-594
共同	-595
几乎	-596
分布	-597
创新	-598
力的	-599
区别	-600
单位	-601
即时	-602
只能	-603
各种	-604
困难	-605
基因	-606
处于	-607
完善	-608
实践	-609
就越	-610
并非	-611
幻觉	-612
延申	-613
形态	-614
得到	-615
循环	-616
必修	-617
思维	-618
性质	-619
成员	-620
成的	-621
执行	-622
接触	-623
提升	-624
数据	-625
数量	-626
是极	-627
显然	-628
有的	-629
模板	-630
正法	-631
此为	-632
毁灭	-633
活性	-634
火鸡	-635
狭义	-636
理论	-637
生物	-638
用的	-639
的对	-640
的重	-641
目录	-642
相信	-643
种种	-644
空间	-645
第一	-646
糟糕	-647
索引	-648
经历	-649
绝对	-650
统一	-651
考量	-652
者的	-653
而非	-654
脆弱	-655
至少	-656
衡量	-657
要素	-658
谐波	-659
资产	-660
走向	-661
载体	-662
近乎	-663
进化	-664
远离	-665
造的	-666
遵循	-667
非常	-668
黑洞	-669
LOY	-670
不得不	-671
也必然	-672
产生的	-673
但是在	-674
依然得	-675
健康的	-676
内部的	-677
出来的	-678
分支的	-679
即便是	-680
原始的	-681
属性与	-682
或者更	-683
是一个	-684
是自己	-685
机制则	-686
的功能	-687
的原因	-688
的意志	-689
的社会	-690
的自然	-691
社会中	-692
称之为	-693
自我的	-694
这两种	-695
这就是	-696
PLOY	-697
一个时代	-698
成为一种	-699
我们必须	-700
是必要的	-701
本身就是	-702
棋盘之外	-703
没有办法	-704
要想知道	-705
这一点上	-706
都是一种	-707
一定程度上	-708
人类的力量	-709
评判一个人	-710
魔法原使书录	-711
无可避免的出现	-712
Ke	-713
一件	-714
三大	-715
不一	-716
严重	-717
为主	-718
之中	-719
习惯	-720
事项	-721
人格	-722
优化	-723
会有	-724
依附	-725
信念	-726
偏执	-727
元素	-728
克服	-729
减少	-730
到了	-731
制约	-732
动物	-733
动的	-734
包括	-735
区块	-736
单元	-737
博弈	-738
却不	-739
原生	-740
双重	-741
变成	-742
句话	-743
同理	-744
命运	-745
四种	-746
回到	-747
团结	-748
场位	-749
外道	-750
外部	-751
多少	-752
大小	-753
太多	-754
失误	-755
孤立	-756
对待	-757
就不	-758
尺度	-759
局限	-760
嵌套	-761
广义	-762
度上	-763
度的	-764
延展	-765
归纳	-766
忽略	-767
总是	-768
恒星	-769
意思	-770
投射	-771
接近	-772
搭建	-773
操作	-774
效的	-775
方便	-776
无数	-777
无时	-778
无限	-779
是一	-780
是不	-781
替代	-782
最为	-783
来源	-784
极限	-785
核心	-786
桥梁	-787
模糊	-788
欲望	-789
欺骗	-790
正义	-791
正在	-792
正确	-793
正视	-794
比例	-795
法则	-796
涉及	-797
牢笼	-798
特征	-799
现象	-800
理念	-801
理感	-802
的同	-803
相反	-804
看到	-805
破坏	-806
确保	-807
确立	-808
神式	-809
种子	-810
种类	-811
称为	-812
稳健	-813
而不	-814
而其	-815
而在	-816
而言	-817
耦合	-818
肯定	-819
背后	-820
胜利	-821
要从	-822
见的	-823
观测	-824
认为	-825
许多	-826
越大	-827
车子	-828
轻易	-829
运算	-830
适应	-831
适配	-832
那个	-833
那份	-834
都在	-835
配置	-836
重新	-837
链接	-838
错误	-839
面临	-840
高贵	-841
Key	-842
一个又	-843
之间的	-844
也必须	-845
任何的	-846
依附于	-847
充满了	-848
具体的	-849
分为了	-850
则正是	-851
利益的	-852
力量的	-853
功能的	-854
危险的	-855
原象的	-856
固定的	-857
在人类	-858
实际的	-859
就可以	-860
就越是	-861
工具化	-862
建立的	-863
影响着	-864
往往比	-865
很重要	-866
恶人的	-867
愚蠢的	-868
我们要	-869
提到的	-870
是一切	-871
是工作	-872
是无法	-873
未来是	-874
某一种	-875
根目录	-876
概念的	-877
生命的	-878
的两种	-879
的人类	-880
的基础	-881
的差异	-882
的情况	-883
的方法	-884
的时候	-885
的标准	-886
的知识	-887
的观念	-888
的运营	-889
的选择	-890
相对的	-891
相比于	-892
社群中	-893
第二种	-894
而作为	-895
而矛盾	-896
行为的	-897
观念的	-898
超感理	-899
超理感	-900
超越了	-901
造成了	-902
与组织的	-903
人的一种	-904
价值观的	-905
则成为了	-906
原知识的	-907
变革者的	-908
可以利用	-909
唯一可以	-910
基本属性	-911
如果不能	-912
对未来的	-913
我们可以	-914
或者组织	-915
更是一种	-916
的问题是	-917
相对环境	-918
社会关系	-919
这个时候	-920
这些东西	-921
那么无疑	-922
一个又一个	-923
时代精神的	-924
正因为如此	-925
的必要条件	-926
::	-927
:“	-928
Pr	-929
Pu	-930
at	-931
bl	-932
ic	-933
iv	-934
”(	-935
▁太	-936
一半	-937
一时	-938
一群	-939
不变	-940
与机	-941
且粗	-942
为准	-943
九宫	-944
也可	-945
习俗	-946
于是	-947
产品	-948
人对	-949
人脉	-950
从此	-951
以此	-952
优势	-953
会被	-954
伪装	-955
但却	-956
体系	-957
何方	-958
使其	-959
依靠	-960
便为	-961
保持	-962
值得	-963
做出	-964
偷懒	-965
先约	-966
六道	-967
其中	-968
其实	-969
创始	-970
到达	-971
刺激	-972
匣子	-973
区分	-974
十分	-975
协调	-976
即刻	-977
原型	-978
又是	-979
反射	-980
发展	-981
变换	-982
同情	-983
名词	-984
向推	-985
吸引	-986
呈现	-987
品质	-988
因子	-989
因此	-990
固然	-991
土壤	-992
在同	-993
在的	-994
地上	-995
塑造	-996
多元	-997
大众	-998
天枢	-999
学习	-1000
完整	-1001
对比	-1002
尊重	-1003
就得	-1004
展示	-1005
带来	-1006
常的	-1007
平等	-1008
应用	-1009
建构	-1010
引发	-1011
归咎	-1012
当的	-1013
很难	-1014
心意	-1015
恶人	-1016
悲剧	-1017
情景	-1018
情绪	-1019
愚弄	-1020
感受	-1021
感官	-1022
成分	-1023
我为	-1024
我想	-1025
战场	-1026
战斗	-1027
才会	-1028
打破	-1029
扩大	-1030
扭曲	-1031
扮演	-1032
投票	-1033
拥抱	-1034
指挥	-1035
掌握	-1036
探索	-1037
接下	-1038
控的	-1039
揣测	-1040
支撑	-1041
效果	-1042
文字	-1043
新生	-1044
无不	-1045
无关	-1046
无刻	-1047
既定	-1048
时刻	-1049
时态	-1050
明智	-1051
明白	-1052
星际	-1053
是人	-1054
是最	-1055
是有	-1056
是由	-1057
普遍	-1058
智慧	-1059
智者	-1060
更是	-1061
有着	-1062
服从	-1063
期的	-1064
未知	-1065
机论	-1066
构建	-1067
样例	-1068
模型	-1069
正理	-1070
比喻	-1071
污染	-1072
法律	-1073
混乱	-1074
混迹	-1075
源泉	-1076
父母	-1077
片面	-1078
特别	-1079
生态	-1080
生理	-1081
由此	-1082
的不	-1083
的教	-1084
的无	-1085
的最	-1086
的相	-1087
的规	-1088
的讲	-1089
相互	-1090
相同	-1091
真的	-1092
确实	-1093
社熙	-1094
种族	-1095
秘密	-1096
称作	-1097
符号	-1098
等待	-1099
等等	-1100
线程	-1101
细胞	-1102
缺失	-1103
罪恶	-1104
老板	-1105
而对	-1106
联想	-1107
聚集	-1108
聪明	-1109
能够	-1110
能将	-1111
自相	-1112
至于	-1113
观察	-1114
言而	-1115
认可	-1116
认识	-1117
设立	-1118
识的	-1119
词语	-1120
诞生	-1121
语境	-1122
谎言	-1123
财富	-1124
贩卖	-1125
超过	-1126
辐射	-1127
输入	-1128
运行	-1129
连接	-1130
逃离	-1131
道德	-1132
遵守	-1133
那些	-1134
都将	-1135
重生	-1136
金钱	-1137
链路	-1138
锚定	-1139
防御	-1140
陷阱	-1141
集体	-1142
面上	-1143
面貌	-1144
预测	-1145
骗局	-1146
鲁棒	-1147
ate	-1148
▁一个	-1149
▁人类	-1150
▁我们	-1151
一定会	-1152
一定的	-1153
一方面	-1154
一种是	-1155
上来说	-1156
不存在	-1157
不断的	-1158
与其他	-1159
与后天	-1160
与幻想	-1161
世界的	-1162
为困难	-1163
人无法	-1164
人本身	-1165
人类在	-1166
人身上	-1167
他们的	-1168
会受到	-1169
伪造的	-1170
但是却	-1171
偏向于	-1172
其必然	-1173
其难以	-1174
出现了	-1175
则可以	-1176
则相对	-1177
判断的	-1178
却没有	-1179
发生在	-1180
另一种	-1181
只需要	-1182
品德的	-1183
在何方	-1184
在条件	-1185
在现代	-1186
复杂的	-1187
大部分	-1188
如何的	-1189
孤立的	-1190
就无法	-1191
幻想的	-1192
应该是	-1193
底下的	-1194
得符合	-1195
必不可	-1196
我们将	-1197
我们所	-1198
所以从	-1199
所以说	-1200
所有人	-1201
所有的	-1202
所说的	-1203
指挥官	-1204
换句话	-1205
数据库	-1206
文化与	-1207
无不是	-1208
无意义	-1209
时代中	-1210
是作为	-1211
是权位	-1212
更多的	-1213
有一个	-1214
服务的	-1215
本质是	-1216
来完成	-1217
来源于	-1218
构成了	-1219
框架的	-1220
正法的	-1221
此便为	-1222
深度的	-1223
然不同	-1224
的作用	-1225
的健康	-1226
的判断	-1227
的前提	-1228
的功课	-1229
的反应	-1230
的处理	-1231
的方式	-1232
的时代	-1233
的根基	-1234
的生存	-1235
的载体	-1236
的运动	-1237
的部分	-1238
真实的	-1239
社机论	-1240
而付出	-1241
而原象	-1242
而时代	-1243
背后的	-1244
自然的	-1245
要面对	-1246
观念与	-1247
角色的	-1248
解决的	-1249
质量的	-1250
资源的	-1251
超限战	-1252
这一切	-1253
这个人	-1254
进入到	-1255
进行时	-1256
适当的	-1257
限制于	-1258
面对的	-1259
领导力	-1260
领导的	-1261
频率的	-1262
首先要	-1263
高效的	-1264
黑匣子	-1265
Priv	-1266
Publ	-1267
▁社会的	-1268
两者之间	-1269
为困难的	-1270
也就没有	-1271
也是一种	-1272
了简单的	-1273
人的生命	-1274
人类依然	-1275
人类社会	-1276
人类要想	-1277
从而实现	-1278
从而形成	-1279
任何一个	-1280
但是我们	-1281
兑换的根	-1282
内部机制	-1283
出现问题	-1284
则必然要	-1285
又是什么	-1286
可避免的	-1287
基本功能	-1288
如果我们	-1289
就是一种	-1290
形式主义	-1291
往往具有	-1292
必修功课	-1293
性注意力	-1294
我们不得	-1295
我们也得	-1296
我们应该	-1297
整个链条	-1298
无时无刻	-1299
无法改变	-1300
无法逃离	-1301
最基本的	-1302
最大程度	-1303
本质上是	-1304
条件下的	-1305
认知本身	-1306
资源流动	-1307
超越时代	-1308
运营之道	-1309
还是其他	-1310
这种情况	-1311
通常需要	-1312
重要的是	-1313
不仅体现在	-1314
不得不承认	-1315
从这一点上	-1316
分支的碰撞	-1317
匹配的标准	-1318
并不是完全	-1319
心灵的力量	-1320
整个链条的	-1321
本身的缺陷	-1322
真正的自己	-1323
社会的力量	-1324
绝不是一种	-1325
而是真正的	-1326
自我的存在	-1327
Public	-1328
在一定程度上	-1329
在这种情况下	-1330
在这里我们将	-1331
大多数情况下	-1332
成为了必要的	-1333
或者更准确的	-1334
是极为困难的	-1335
最大的问题是	-1336
这也是为什么	-1337
Private	-1338
就无可避免的出现	-1339
DN	-1340
Ha	-1341
RL	-1342
Se	-1343
sh	-1344
▁L	-1345
一世	-1346
一回	-1347
一场	-1348
一大	-1349
一根	-1350
一般	-1351
一茬	-1352
三种	-1353
三鼎	-1354
上是	-1355
上演	-1356
上说	-1357
上述	-1358
下棋	-1359
不上	-1360
不为	-1361
不像	-1362
不再	-1363
不分	-1364
不前	-1365
不幸	-1366
不必	-1367
不清	-1368
不足	-1369
不远	-1370
不错	-1371
不限	-1372
与保	-1373
与品	-1374
与此	-1375
与非	-1376
世间	-1377
严谨	-1378
个体	-1379
为先	-1380
为分	-1381
为常	-1382
为此	-1383
主体	-1384
主干	-1385
之是	-1386
之者	-1387
也会	-1388
也在	-1389
也有	-1390
事务	-1391
事的	-1392
互相	-1393
交往	-1394
交易	-1395
亦同	-1396
人也	-1397
人偶	-1398
人到	-1399
人性	-1400
人生	-1401
人要	-1402
仅仅	-1403
从未	-1404
从来	-1405
从根	-1406
以重	-1407
任务	-1408
众生	-1409
传导	-1410
似乎	-1411
似的	-1412
但仍	-1413
位置	-1414
体会	-1415
体验	-1416
何种	-1417
作出	-1418
依照	-1419
侵占	-1420
保护	-1421
保障	-1422
信服	-1423
做到	-1424
做好	-1425
停滞	-1426
像样	-1427
元位	-1428
公司	-1429
共识	-1430
其先	-1431
其本	-1432
内存	-1433
再到	-1434
再多	-1435
决断	-1436
决非	-1437
准则	-1438
几个	-1439
出发	-1440
出错	-1441
分化	-1442
分开	-1443
分类	-1444
分辨	-1445
则就	-1446
则更	-1447
则生	-1448
创作	-1449
别人	-1450
到死	-1451
制造	-1452
包含	-1453
单纯	-1454
危机	-1455
即是	-1456
历史	-1457
去了	-1458
发现	-1459
变得	-1460
另外	-1461
只会	-1462
只讲	-1463
可怜	-1464
可是	-1465
可量	-1466
可靠	-1467
合的	-1468
同时	-1469
同调	-1470
后代	-1471
否认	-1472
听从	-1473
告诉	-1474
哲学	-1475
唤醒	-1476
器官	-1477
因素	-1478
围绕	-1479
国度	-1480
图腾	-1481
圈套	-1482
圣灵	-1483
圣道	-1484
在这	-1485
地带	-1486
地方	-1487
均衡	-1488
坏的	-1489
坦诚	-1490
基准	-1491
基对	-1492
增加	-1493
墨水	-1494
外界	-1495
外表	-1496
多么	-1497
大概	-1498
大的	-1499
大脑	-1500
天生	-1501
太易	-1502
失灵	-1503
失衡	-1504
头上	-1505
头衔	-1506
奇点	-1507
套的	-1508
子和	-1509
子极	-1510
存的	-1511
学会	-1512
学校	-1513
学问	-1514
守卫	-1515
安全	-1516
宗教	-1517
实在	-1518
实质	-1519
审批	-1520
客观	-1521
对偶	-1522
对弈	-1523
对手	-1524
对此	-1525
对者	-1526
对象	-1527
对错	-1528
导向	-1529
导的	-1530
将开	-1531
就从	-1532
就在	-1533
就如	-1534
就应	-1535
就有	-1536
局部	-1537
居住	-1538
岗位	-1539
市场	-1540
帝者	-1541
常常	-1542
常数	-1543
常量	-1544
并以	-1545
并存	-1546
应对	-1547
开启	-1548
开的	-1549
式的	-1550
引起	-1551
强弱	-1552
归属	-1553
形象	-1554
很多	-1555
必定	-1556
必需	-1557
怀着	-1558
性与	-1559
总之	-1560
悬挂	-1561
想吧	-1562
意为	-1563
意味	-1564
意愿	-1565
愚痴	-1566
感的	-1567
感知	-1568
愿意	-1569
懂得	-1570
成熟	-1571
我的	-1572
房屋	-1573
抛弃	-1574
抱朴	-1575
拟态	-1576
持续	-1577
指标	-1578
指针	-1579
捆绑	-1580
捏造	-1581
损失	-1582
换言	-1583
排除	-1584
控制	-1585
推动	-1586
推进	-1587
推销	-1588
掩盖	-1589
携带	-1590
摆脱	-1591
支配	-1592
放到	-1593
效应	-1594
教你	-1595
整合	-1596
斗命	-1597
新颖	-1598
无从	-1599
无明	-1600
时而	-1601
明的	-1602
明谛	-1603
是与	-1604
是以	-1605
是对	-1606
是每	-1607
显著	-1608
暗示	-1609
暴的	-1610
替换	-1611
最能	-1612
最高	-1613
有了	-1614
有形	-1615
有限	-1616
木的	-1617
机会	-1618
极率	-1619
标题	-1620
根基	-1621
梦想	-1622
检查	-1623
此而	-1624
每一	-1625
注定	-1626
涌现	-1627
涣散	-1628
深深	-1629
混沌	-1630
演化	-1631
演变	-1632
激发	-1633
激素	-1634
灵魂	-1635
然后	-1636
物体	-1637
状况	-1638
独立	-1639
现存	-1640
瑗星	-1641
生病	-1642
由来	-1643
留存	-1644
病毒	-1645
的上	-1646
的以	-1647
的住	-1648
的先	-1649
的可	-1650
的吗	-1651
的四	-1652
的线	-1653
的行	-1654
的调	-1655
的超	-1656
的非	-1657
目的	-1658
直到	-1659
相似	-1660
相关	-1661
相悖	-1662
看待	-1663
看来	-1664
瞻妄	-1665
知晓	-1666
确认	-1667
碎片	-1668
示录	-1669
神圣	-1670
禀性	-1671
离开	-1672
称得	-1673
稳固	-1674
竞争	-1675
端口	-1676
答案	-1677
策略	-1678
管理	-1679
管道	-1680
精灵	-1681
纪录	-1682
组成	-1683
给了	-1684
绝非	-1685
继续	-1686
绳索	-1687
维护	-1688
而且	-1689
而从	-1690
而后	-1691
而异	-1692
而知	-1693
而这	-1694
职责	-1695
肆意	-1696
能让	-1697
脑子	-1698
自省	-1699
至高	-1700
良知	-1701
若是	-1702
范围	-1703
草木	-1704
行星	-1705
衍射	-1706
被动	-1707
观赏	-1708
规则	-1709
觉得	-1710
角度	-1711
计算	-1712
讲的	-1713
论断	-1714
设想	-1715
设置	-1716
证明	-1717
诋毁	-1718
详见	-1719
诸如	-1720
课题	-1721
调和	-1722
贵贱	-1723
起点	-1724
超出	-1725
超链	-1726
越远	-1727
践行	-1728
身份	-1729
转向	-1730
轮回	-1731
辅助	-1732
运气	-1733
运用	-1734
还原	-1735
还在	-1736
还得	-1737
这一	-1738
这么	-1739
这便	-1740
这就	-1741
进步	-1742
远古	-1743
远远	-1744
迷乱	-1745
追寻	-1746
追求	-1747
通往	-1748
造了	-1749
邪恶	-1750
都会	-1751
释放	-1752
重点	-1753
重组	-1754
野草	-1755
量化	-1756
错乱	-1757
锚点	-1758
长短	-1759
阶梯	-1760
降临	-1761
陷入	-1762
需求	-1763
非人	-1764
非要	-1765
革新	-1766
项的	-1767
预缓	-1768
领域	-1769
颜色	-1770
首要	-1771
高明	-1772
DNS	-1773
Set	-1774
”),	-1775
▁虽然	-1776
▁超感	-1777
一个门	-1778
一大堆	-1779
一定要	-1780
一旦到	-1781
上演着	-1782
上述的	-1783
不仅在	-1784
不可不	-1785
不同的	-1786
不在于	-1787
不少的	-1788
不属于	-1789
不希望	-1790
不思考	-1791
不言而	-1792
不认识	-1793
不限于	-1794
与事实	-1795
与交融	-1796
与人类	-1797
与任何	-1798
与保留	-1799
与判断	-1800
与匹配	-1801
与商业	-1802
与新生	-1803
与时代	-1804
与机械	-1805
与生活	-1806
与童话	-1807
与组织	-1808
与结果	-1809
与运动	-1810
且教育	-1811
世界上	-1812
个人的	-1813
中发生	-1814
中存在	-1815
中我们	-1816
为常见	-1817
为这种	-1818
主动的	-1819
之所以	-1820
也自然	-1821
也许会	-1822
也需要	-1823
了一些	-1824
了什么	-1825
于业务	-1826
于属性	-1827
于这种	-1828
亦或者	-1829
人不能	-1830
人必须	-1831
人没有	-1832
人类是	-1833
从这里	-1834
代表着	-1835
以人类	-1836
以至于	-1837
伴随着	-1838
但是绝	-1839
位置上	-1840
你需要	-1841
使自己	-1842
依赖于	-1843
做什么	-1844
元素的	-1845
先天的	-1846
其内部	-1847
其影响	-1848
其真正	-1849
其质量	-1850
决不是	-1851
决定的	-1852
出一种	-1853
分支与	-1854
分析的	-1855
则对于	-1856
则并不	-1857
则必然	-1858
则更加	-1859
创始人	-1860
到一种	-1861
前一种	-1862
力量是	-1863
功能性	-1864
功能或	-1865
动态与	-1866
单纯的	-1867
取决与	-1868
变动了	-1869
变化而	-1870
变换而	-1871
可以很	-1872
可以杀	-1873
可以调	-1874
可能的	-1875
否则将	-1876
否则就	-1877
命运默	-1878
和谐的	-1879
圈套与	-1880
圣道谛	-1881
在一切	-1882
在一点	-1883
在工作	-1884
在时间	-1885
在未来	-1886
在没有	-1887
基于此	-1888
基础的	-1889
大众的	-1890
天上的	-1891
天然的	-1892
天生的	-1893
失去了	-1894
如上面	-1895
如果有	-1896
如果说	-1897
定义域	-1898
实现则	-1899
对现实	-1900
少部分	-1901
就开始	-1902
就越强	-1903
希望的	-1904
建构的	-1905
引起的	-1906
当恶魔	-1907
得知道	-1908
得说明	-1909
心灵的	-1910
必须由	-1911
忽略了	-1912
思想是	-1913
思想来	-1914
恶魔的	-1915
悬挂在	-1916
想想吧	-1917
成一种	-1918
成功的	-1919
成员的	-1920
我们则	-1921
或者说	-1922
所以不	-1923
换言之	-1924
接触的	-1925
敌对者	-1926
无意识	-1927
无数的	-1928
无法在	-1929
既定的	-1930
是关键	-1931
是匹配	-1932
是否是	-1933
是否有	-1934
是建立	-1935
是形式	-1936
是必修	-1937
是来自	-1938
是没有	-1939
是行动	-1940
显著的	-1941
更应该	-1942
最接近	-1943
最方便	-1944
有什么	-1945
有机的	-1946
有机论	-1947
有标准	-1948
权位的	-1949
来使其	-1950
来自地	-1951
来解决	-1952
根属性	-1953
模式而	-1954
正常的	-1955
永远是	-1956
没有讲	-1957
涉及到	-1958
灾难的	-1959
独属于	-1960
环境下	-1961
理性的	-1962
理解为	-1963
生命体	-1964
生命力	-1965
生活中	-1966
生活是	-1967
由人类	-1968
的一样	-1969
的三大	-1970
的事实	-1971
的交融	-1972
的办法	-1973
的发生	-1974
的变革	-1975
的地方	-1976
的大小	-1977
的属性	-1978
的归属	-1979
的影响	-1980
的思维	-1981
的手段	-1982
的是人	-1983
的未来	-1984
的机制	-1985
的概念	-1986
的模式	-1987
的正是	-1988
的源泉	-1989
的演变	-1990
的物质	-1991
的相处	-1992
的矛盾	-1993
的第一	-1994
的结合	-1995
的胜利	-1996
的能力	-1997
的行动	-1998
的行径	-1999
的资源	-2000
的超越	-2001
的迭代	-2002
的逻辑	-2003
的重合	-2004
的重生	-2005
看不到	-2006
看如何	-2007
真的是	-2008
知识却	-2009
确实是	-2010
社群内	-2011
私有的	-2012
种族的	-2013
称不上	-2014
稳定时	-2015
稳定的	-2016
第一种	-2017
等比例	-2018
糟糕的	-2019
组成的	-2020
经验的	-2021
结合了	-2022
统一的	-2023
者本身	-2024
而临界	-2025
而人类	-2026
而复制	-2027
而并非	-2028
而恶魔	-2029
而撬动	-2030
而流动	-2031
而社群	-2032
而这些	-2033
而领导	-2034
能带来	-2035
脱离了	-2036
自我与	-2037
自然人	-2038
自然界	-2039
自由与	-2040
自组织	-2041
虽然是	-2042
被称为	-2043
要改变	-2044
观察员	-2045
角度上	-2046
语言的	-2047
贤明谛	-2048
辐射面	-2049
辨识的	-2050
运动时	-2051
还有着	-2052
这才是	-2053
这种无	-2054
选择中	-2055
选择的	-2056
遭受到	-2057
那一个	-2058
都不是	-2059
都不能	-2060
都是在	-2061
重新的	-2062
锚定点	-2063
除非有	-2064
陷入到	-2065
难的多	-2066
非正理	-2067
面临着	-2068
革命是	-2069
魔法使	-2070
鲁棒性	-2071
...,	-2072
...。	-2073
Hash	-2074
▁变革者	-2075
▁思想的	-2076
一个好的	-2077
一件事情	-2078
一切教育	-2079
一定符合	-2080
一种则是	-2081
一种新的	-2082
下的决策	-2083
不仅只是	-2084
不知道在	-2085
与属性的	-2086
与抽象的	-2087
且粗暴的	-2088
两种系统	-2089
临界元位	-2090
临界力量	-2091
为主导的	-2092
为建立的	-2093
也好还是	-2094
了一大堆	-2095
井底下的	-2096
人类不仅	-2097
人类只有	-2098
人类或者	-2099
从物自体	-2100
从而导致	-2101
付出代价	-2102
价值判断	-2103
但是改变	-2104
体的知识	-2105
停滞不前	-2106
兑换属性	-2107
关键在于	-2108
其必然要	-2109
减少运算	-2110
凭证价值	-2111
则决定了	-2112
则是基于	-2113
利益本身	-2114
功能替代	-2115
动态分配	-2116
原生属性	-2117
双重属性	-2118
只是人类	-2119
只是通过	-2120
可以得到	-2121
可以衡量	-2122
可以评判	-2123
可以随意	-2124
同调后的	-2125
团结起来	-2126
在社群中	-2127
基于什么	-2128
基于流动	-2129
基本没有	-2130
处理机制	-2131
复杂的多	-2132
大多数是	-2133
大多数的	-2134
如果非要	-2135
实践经验	-2136
实际情况	-2137
对于恶人	-2138
对匹配的	-2139
对现实的	-2140
将动态的	-2141
属性下的	-2142
并不冲突	-2143
引用属性	-2144
当然我们	-2145
很重要的	-2146
必要条件	-2147
必须接受	-2148
思想本身	-2149
感官刺激	-2150
懂得如何	-2151
我们如果	-2152
我们常常	-2153
我们无法	-2154
我们来说	-2155
我们还得	-2156
或者其他	-2157
或者更多	-2158
截然不同	-2159
所以一旦	-2160
手段则是	-2161
抽象本身	-2162
抽象机制	-2163
教你如何	-2164
教育本身	-2165
整个经济	-2166
无法接受	-2167
无论什么	-2168
无论是否	-2169
是动态的	-2170
是否获得	-2171
是如此的	-2172
更准确的	-2173
更加重要	-2174
替换记忆	-2175
最原始的	-2176
机制缺失	-2177
来决定的	-2178
根元素的	-2179
根属性的	-2180
框架搭建	-2181
正是一种	-2182
此便为君	-2183
此时火鸡	-2184
毫无意义	-2185
没有标准	-2186
深度的灵	-2187
物质社会	-2188
特征就是	-2189
环境属性	-2190
现存数量	-2191
生命本身	-2192
生活方式	-2193
的人并不	-2194
的是什么	-2195
的状态时	-2196
看不见的	-2197
知识可以	-2198
知道未来	-2199
知道自己	-2200
破坏未来	-2201
社会力量	-2202
社会永远	-2203
社群属性	-2204
社群文化	-2205
社群活动	-2206
神式系统	-2207
程度上的	-2208
稳定状态	-2209
精神面貌	-2210
组织本身	-2211
经济属性	-2212
经济行为	-2213
绝不是只	-2214
绝不是靠	-2215
而产生的	-2216
而是内心	-2217
而组织的	-2218
而这两种	-2219
而造成的	-2220
脱离自然	-2221
自我暗示	-2222
自然运动	-2223
自相矛盾	-2224
草木一样	-2225
行动本身	-2226
行星之间	-2227
观念源自	-2228
角色扮演	-2229
解决问题	-2230
质量保障	-2231
质量限制	-2232
走出来的	-2233
这一点与	-2234
这个问题	-2235
这些人格	-2236
这无疑是	-2237
这是因为	-2238
这种力量	-2239
这种意志	-2240
这种机制	-2241
这种能力	-2242
都是那份	-2243
问题不是	-2244
需要一种	-2245
预缓存的	-2246
一个时代的	-2247
一种必要的	-2248
不仅来自于	-2249
不可避免的	-2250
不希望的人	-2251
与任何标签	-2252
两种之间的	-2253
事实与幻想	-2254
人类的一种	-2255
人类的思想	-2256
人类的思考	-2257
人类的机制	-2258
人类的行为	-2259
人类的行动	-2260
人类真正的	-2261
似乎是一种	-2262
体现在一种	-2263
依赖的东西	-2264
冲突与交融	-2265
分为了两种	-2266
功能则正是	-2267
功能的替代	-2268
原始冲动而	-2269
又是什么呢	-2270
取决于设计	-2271
另一种形式	-2272
只要是人类	-2273
可以调用的	-2274
命运默示录	-2275
回答我们的	-2276
在这种循环	-2277
在这里没有	-2278
天上的国度	-2279
天然的文化	-2280
实际的道理	-2281
对于所有人	-2282
就无法知道	-2283
工作的价值	-2284
工作的本质	-2285
并不完全是	-2286
并不是一种	-2287
并不是全然	-2288
并不是矛盾	-2289
当恶魔占据	-2290
形式的存在	-2291
形式的矛盾	-2292
心理的经验	-2293
必不可少的	-2294
必然伴随着	-2295
必然要知道	-2296
思想的改善	-2297
成为了必要	-2298
我们实际上	-2299
我们称之为	-2300
我们要知道	-2301
或者是一种	-2302
所以适当的	-2303
才可以没有	-2304
抽象的集合	-2305
换句话来说	-2306
新的变革者	-2307
时代的判断	-2308
是否是一种	-2309
最重要的是	-2310
未来的阶梯	-2311
机制的健康	-2312
某种程度上	-2313
框架的和谐	-2314
概念的占据	-2315
状态的转换	-2316
独属于自己	-2317
的思想也好	-2318
的状态存储	-2319
的社会行动	-2320
的运动状态	-2321
的运营方式	-2322
看如何对待	-2323
真正的力量	-2324
知识的运营	-2325
社会的结构	-2326
社会的运动	-2327
社群的概念	-2328
第二种则是	-2329
绝不是靠着	-2330
而变革者的	-2331
而是条件的	-2332
而是观念与	-2333
职业的存在	-2334
自己真正的	-2335
超越人类的	-2336
还是其他的	-2337
这只是一种	-2338
这就造成了	-2339
这样才可以	-2340
这种社群的	-2341
那个时代的	-2342
那么一定会	-2343
那么我们就	-2344
那么无疑会	-2345
那么这个人	-2346
那么首先得	-2347
静态的动态	-2348
▁人类的力量	-2349
▁我们必须要	-2350
不仅仅限制于	-2351
人类无时无刻	-2352
从此我们应该	-2353
从这一点上说	-2354
但是我们依然	-2355
其必然要符合	-2356
则成为了可能	-2357
可以得到一种	-2358
基本没有变化	-2359
就会停滞不前	-2360
建立在人身上	-2361
我们也得承认	-2362
拥有两种系统	-2363
时代中人们的	-2364
是一种状态的	-2365
是必修的功课	-2366
是权位的一种	-2367
的三大有机论	-2368
超过了简单的	-2369
这就是为什么	-2370
那么就称不上	-2371
人类本身的缺陷	-2372
取决于经济属性	-2373
回答我们的只有	-2374
我们如果不知道	-2375
绝对命运默示录	-2376
自身的状态存储	-2377
这种状态的转换	-2378
那么一定会出现	-2379
否则就成为了一种	-2380
的本身并不是矛盾	-2381
PublicKey	-2382
PrivateKey	-2383
VR	-2384
\~	-2385
▁-	-2386
▁从	-2387
▁将	-2388
一体	-2389
一想	-2390
一整	-2391
一条	-2392
一段	-2393
一瞬	-2394
万事	-2395
三皇	-2396
上也	-2397
上却	-2398
上来	-2399
下极	-2400
不兼	-2401
不切	-2402
不到	-2403
不应	-2404
不成	-2405
不承	-2406
不爽	-2407
不算	-2408
不给	-2409
与事	-2410
与容	-2411
与慈	-2412
与旧	-2413
与瞎	-2414
与老	-2415
与能	-2416
与自	-2417
与花	-2418
与虫	-2419
与血	-2420
与集	-2421
与领	-2422
且不	-2423
且在	-2424
且暧	-2425
业火	-2426
中不	-2427
中心	-2428
中演	-2429
临了	-2430
临近	-2431
为一	-2432
为了	-2433
主动	-2434
主导	-2435
义序	-2436
之变	-2437
之重	-2438
乎其	-2439
乐园	-2440
也就	-2441
事或	-2442
五通	-2443
交织	-2444
人发	-2445
人品	-2446
人想	-2447
仅从	-2448
仍然	-2449
从动	-2450
仔细	-2451
代代	-2452
以及	-2453
以极	-2454
会死	-2455
似神	-2456
但的	-2457
但终	-2458
体上	-2459
体显	-2460
何乎	-2461
何况	-2462
何尝	-2463
你到	-2464
你愿	-2465
你是	-2466
依据	-2467
保守	-2468
修了	-2469
停不	-2470
像邻	-2471
元精	-2472
元道	-2473
免太	-2474
入手	-2475
公室	-2476
共性	-2477
其令	-2478
其难	-2479
具体	-2480
具肉	-2481
内容	-2482
决然	-2483
几种	-2484
出来	-2485
出獠	-2486
分内	-2487
分区	-2488
分比	-2489
切的	-2490
则以	-2491
则会	-2492
则大	-2493
则来	-2494
创伤	-2495
创造	-2496
初阴	-2497
到老	-2498
前置	-2499
一份	-2500
一致	-2501
不太	-2502
专注	-2503
两个	-2504
中由	-2505
为的	-2506
仅限	-2507
例如	-2508
八正	-2509
共集	-2510
其根	-2511
则从	-2512
前行	-2513
前进	-2514
力场	-2515
加这	-2516
努力	-2517
匠与	-2518
医药	-2519
半吊	-2520
卖鸡	-2521
却是	-2522
却老	-2523
厉害	-2524
原先	-2525
双方	-2526
反向	-2527
发性	-2528
发源	-2529
发起	-2530
叙事	-2531
叠加	-2532
口与	-2533
古今	-2534
叫为	-2535
可奈	-2536
可标	-2537
可生	-2538
合格	-2539
合理	-2540
后遗	-2541
向于	-2542
含糊	-2543
周转	-2544
呵护	-2545
呼吸	-2546
和可	-2547
和必	-2548
品种	-2549
四大	-2550
回归	-2551
围攻	-2552
固定	-2553
圆环	-2554
在在	-2555
在枝	-2556
在资	-2557
在面	-2558
场剥	-2559
场基	-2560
坏地	-2561
坚守	-2562
墙铁	-2563
声音	-2564
处密	-2565
多个	-2566
多述	-2567
大与	-2568
大于	-2569
大却	-2570
的	-2571
,	-2572
是	-2573
一	-2574
人	-2575
种	-2576
(	-2577
)	-2578
不	-2579
而	-2580
这	-2581
在	-2582
有	-2583
以	-2584
“	-2585
”	-2586
为	-2587
与	-2588
要	-2589
然	-2590
自	-2591
们	-2592
我	-2593
无	-2594
个	-2595
来	-2596
类	-2597
本	-2598
可	-2599
了	-2600
动	-2601
么	-2602
于	-2603
性	-2604
就	-2605
上	-2606
如	-2607
也	-2608
必	-2609
其	-2610
身	-2611
成	-2612
会	-2613
态	-2614
则	-2615
想	-2616
对	-2617
生	-2618
时	-2619
社	-2620
体	-2621
定	-2622
那	-2623
正	-2624
者	-2625
能	-2626
变	-2627
力	-2628
知	-2629
到	-2630
▁	-2631
所	-2632
思	-2633
法	-2634
从	-2635
行	-2636
代	-2637
分	-2638
属	-2639
现	-2640
理	-2641
制	-2642
中	-2643
量	-2644
但	-2645
没	-2646
实	-2647
意	-2648
道	-2649
化	-2650
原	-2651
式	-2652
得	-2653
说	-2654
。	-2655
或	-2656
大	-2657
存	-2658
并	-2659
判	-2660
识	-2661
机	-2662
质	-2663
只	-2664
基	-2665
用	-2666
下	-2667
作	-2668
决	-2669
同	-2670
果	-2671
出	-2672
此	-2673
面	-2674
事	-2675
往	-2676
论	-2677
运	-2678
多	-2679
方	-2680
之	-2681
何	-2682
群	-2683
相	-2684
都	-2685
物	-2686
断	-2687
象	-2688
度	-2689
形	-2690
真	-2691
:	-2692
点	-2693
观	-2694
重	-2695
革	-2696
仅	-2697
越	-2698
题	-2699
些	-2700
最	-2701
未	-2702
样	-2703
问	-2704
情	-2705
过	-2706
非	-2707
更	-2708
准	-2709
念	-2710
还	-2711
超	-2712
?	-2713
单	-2714
命	-2715
己	-2716
立	-2717
系	-2718
什	-2719
合	-2720
状	-2721
神	-2722
即	-2723
应	-2724
功	-2725
建	-2726
心	-2727
条	-2728
经	-2729
部	-2730
配	-2731
子	-2732
使	-2733
接	-2734
里	-2735
先	-2736
天	-2737
开	-2738
源	-2739
着	-2740
至	-2741
转	-2742
他	-2743
始	-2744
程	-2745
组	-2746
通	-2747
便	-2748
却	-2749
因	-2750
离	-2751
需	-2752
须	-2753
数	-2754
认	-2755
外	-2756
好	-2757
感	-2758
标	-2759
精	-2760
改	-2761
件	-2762
关	-2763
内	-2764
将	-2765
活	-2766
由	-2767
界	-2768
虽	-2769
义	-2770
价	-2771
和	-2772
造	-2773
况	-2774
模	-2775
织	-2776
绝	-2777
解	-2778
位	-2779
利	-2780
失	-2781
完	-2782
除	-2783
依	-2784
值	-2785
否	-2786
抽	-2787
根	-2788
段	-2789
确	-2790
后	-2791
恶	-2792
新	-2793
简	-2794
限	-2795
两	-2796
受	-2797
明	-2798
且	-2799
世	-2800
业	-2801
切	-2802
发	-2803
复	-2804
常	-2805
整	-2806
比	-2807
环	-2808
看	-2809
言	-2810
进	-2811
匹	-2812
工	-2813
才	-2814
盾	-2815
矛	-2816
难	-2817
魔	-2818
冲	-2819
前	-2820
反	-2821
它	-2822
导	-2823
志	-2824
构	-2825
聚	-2826
链	-2827
信	-2828
全	-2829
换	-2830
权	-2831
结	-2832
远	-2833
间	-2834
主	-2835
健	-2836
向	-2837
境	-2838
战	-2839
承	-2840
统	-2841
考	-2842
凝	-2843
品	-2844
地	-2845
提	-2846
支	-2847
高	-2848
像	-2849
呢	-2850
场	-2851
少	-2852
当	-2853
很	-2854
东	-2855
任	-2856
灵	-2857
西	-2858
起	-2859
路	-2860
集	-2861
产	-2862
免	-2863
处	-2864
引	-2865
文	-2866
语	-2867
频	-2868
取	-2869
幻	-2870
康	-2871
影	-2872
手	-2873
教	-2874
流	-2875
稳	-2876
资	-2877
避	-2878
临	-2879
入	-2880
具	-2881
被	-2882
角	-2883
适	-2884
际	-2885
陷	-2886
亦	-2887
你	-2888
元	-2889
又	-2890
响	-2891
德	-2892
极	-2893
率	-2894
益	-2895
等	-2896
脱	-2897
.	-2898
区	-2899
旦	-2900
易	-2901
架	-2902
注	-2903
第	-2904
缺	-2905
营	-2906
衡	-2907
乃	-2908
争	-2909
加	-2910
善	-2911
某	-2912
特	-2913
直	-2914
称	-2915
证	-2916
调	-2917
验	-2918
务	-2919
学	-2920
律	-2921
愚	-2922
望	-2923
棋	-2924
概	-2925
突	-2926
符	-2927
色	-2928
设	-2929
该	-2930
谐	-2931
选	-2932
随	-2933
N	-2934
做	-2935
办	-2936
去	-2937
回	-2938
异	-2939
录	-2940
怎	-2941
指	-2942
服	-2943
案	-2944
讲	-2945
诚	-2946
领	-2947
乎	-2948
交	-2949
保	-2950
偏	-2951
别	-2952
域	-2953
差	-2954
择	-2955
疑	-2956
盘	-2957
素	-2958
维	-2959
许	-2960
近	-2961
传	-2962
刻	-2963
型	-2964
小	-2965
平	-2966
据	-2967
推	-2968
期	-2969
甚	-2970
础	-2971
端	-2972
置	-2973
见	-2974
走	-2975
错	-2976
靠	-2977
首	-2978
-	-2979
习	-2980
候	-2981
创	-2982
员	-2983
固	-2984
太	-2985
射	-2986
展	-2987
强	-2988
持	-2989
显	-2990
智	-2991
杂	-2992
框	-2993
测	-2994
济	-2995
清	-2996
约	-2997
表	-2998
视	-2999
评	-3000
话	-3001
辑	-3002
逻	-3003
阶	-3004
静	-3005
预	-3006
L	-3007
P	-3008
二	-3009
付	-3010
充	-3011
共	-3012
坏	-3013
容	-3014
局	-3015
已	-3016
希	-3017
归	-3018
总	-3019
息	-3020
拟	-3021
撬	-3022
效	-3023
星	-3024
板	-3025
格	-3026
水	-3027
演	-3028
灾	-3029
策	-3030
算	-3031
索	-3032
职	-3033
联	-3034
育	-3035
蠢	-3036
轻	-3037
输	-3038
键	-3039
三	-3040
乱	-3041
优	-3042
凭	-3043
危	-3044
吗	-3045
商	-3046
头	-3047
官	-3048
弱	-3049
待	-3050
循	-3051
拥	-3052
枢	-3053
永	-3054
深	-3055
混	-3056
管	-3057
线	-3058
终	-3059
规	-3060
计	-3061
让	-3062
责	-3063
长	-3064
e	-3065
丧	-3066
份	-3067
例	-3068
修	-3069
兑	-3070
几	-3071
占	-3072
双	-3073
周	-3074
唯	-3075
困	-3076
圣	-3077
套	-3078
带	-3079
延	-3080
打	-3081
执	-3082
投	-3083
担	-3084
析	-3085
楚	-3086
满	-3087
破	-3088
级	-3089
致	-3090
藏	-3091
融	-3092
觉	-3093
负	-3094
贵	-3095
迭	-3096
险	-3097
骗	-3098
书	-3099
似	-3100
公	-3101
再	-3102
守	-3103
播	-3104
故	-3105
毁	-3106
洞	-3107
激	-3108
火	-3109
片	-3110
略	-3111
目	-3112
示	-3113
空	-3114
答	-3115
纯	-3116
网	-3117
老	-3118
背	-3119
花	-3120
获	-3121
误	-3122
课	-3123
败	-3124
遵	-3125
项	-3126
黑	-3127
2	-3128
i	-3129
互	-3130
伪	-3131
住	-3132
供	-3133
包	-3134
历	-3135
各	-3136
名	-3137
四	-3138
团	-3139
密	-3140
币	-3141
干	-3142
弃	-3143
弈	-3144
恐	-3145
惧	-3146
树	-3147
桌	-3148
步	-3149
每	-3150
童	-3151
签	-3152
记	-3153
词	-3154
践	-3155
载	-3156
金	-3157
R	-3158
S	-3159
Y	-3160
a	-3161
严	-3162
储	-3163
升	-3164
卖	-3165
另	-3166
字	-3167
害	-3168
底	-3169
径	-3170
忆	-3171
控	-3172
撞	-3173
斗	-3174
既	-3175
普	-3176
替	-3177
木	-3178
死	-3179
气	-3180
波	-3181
灭	-3182
独	-3183
王	-3184
留	-3185
碰	-3186
私	-3187
粹	-3188
糊	-3189
络	-3190
续	-3191
脆	-3192
谁	-3193
货	-3194
车	-3195
辩	-3196
遍	-3197
门	-3198
鸡	-3199
K	-3200
O	-3201
\	-3202
t	-3203
众	-3204
侵	-3205
偶	-3206
克	-3207
减	-3208
剧	-3209
及	-3210
句	-3211
喻	-3212
器	-3213
围	-3214
土	-3215
块	-3216
奇	-3217
妄	-3218
察	-3219
布	-3220
广	-3221
忽	-3222
恒	-3223
悖	-3224
悲	-3225
愿	-3226
护	-3227
抱	-3228
掉	-3229
放	-3230
旧	-3231
杀	-3232
次	-3233
欲	-3234
母	-3235
求	-3236
涉	-3237
父	-3238
狭	-3239
申	-3240
病	-3241
皆	-3242
笼	-3243
粗	-3244
糕	-3245
糟	-3246
纳	-3247
细	-3248
给	-3249
胜	-3250
脑	-3251
茧	-3252
草	-3253
触	-3254
谛	-3255
赖	-3256
足	-3257
辨	-3258
连	-3259
述	-3260
锚	-3261
防	-3262
顺	-3263
风	-3264
H	-3265
y	-3266
仍	-3267
停	-3268
偷	-3269
势	-3270
半	-3271
博	-3272
口	-3273
古	-3274
叫	-3275
史	-3276
启	-3277
吸	-3278
呈	-3279
味	-3280
哪	-3281
图	-3282
塑	-3283
够	-3284
孤	-3285
审	-3286
客	-3287
尺	-3288
层	-3289
居	-3290
嵌	-3291
帝	-3292
序	-3293
征	-3294
快	-3295
怀	-3296
惯	-3297
懂	-3298
扩	-3299
括	-3300
探	-3301
搭	-3302
操	-3303
散	-3304
旋	-3305
景	-3306
暴	-3307
曲	-3308
染	-3309
核	-3310
桥	-3311
梁	-3312
检	-3313
棒	-3314
欺	-3315
止	-3316
照	-3317
牢	-3318
痛	-3319
白	-3320
票	-3321
缩	-3322
罪	-3323
耦	-3324
肯	-3325
脉	-3326
貌	-3327
较	-3328
追	-3329
逃	-3330
野	-3331
钱	-3332
阳	-3333
附	-3334
降	-3335
默	-3336
!	-3337
/	-3338
b	-3339
c	-3340
l	-3341
r	-3342
u	-3343
v	-3344
万	-3345
乐	-3346
九	-3347
买	-3348
俗	-3349
倒	-3350
六	-3351
兮	-3352
击	-3353
刺	-3354
助	-3355
匣	-3356
十	-3357
协	-3358
卷	-3359
召	-3360
号	-3361
君	-3362
吧	-3363
含	-3364
听	-3365
咎	-3366
唤	-3367
国	-3368
堆	-3369
墨	-3370
壤	-3371
宫	-3372
富	-3373
寻	-3374
尊	-3375
尝	-3376
屋	-3377
幸	-3378
库	-3379
弄	-3380
御	-3381
悬	-3382
慧	-3383
懒	-3384
戏	-3385
房	-3386
扭	-3387
扮	-3388
挥	-3389
掌	-3390
排	-3391
握	-3392
揣	-3393
摆	-3394
撑	-3395
攻	-3396
救	-3397
族	-3398
松	-3399
残	-3400
毒	-3401
毫	-3402
污	-3403
泉	-3404
消	-3405
潜	-3406
灌	-3407
熙	-3408
狂	-3409
百	-3410
皇	-3411
码	-3412
磨	-3413
禀	-3414
秘	-3415
究	-3416
纪	-3417
绑	-3418
绕	-3419
继	-3420
绪	-3421
缓	-3422
编	-3423
美	-3424
聪	-3425
胞	-3426
若	-3427
落	-3428
补	-3429
装	-3430
讨	-3431
试	-3432
诞	-3433
诸	-3434
谅	-3435
谈	-3436
谎	-3437
财	-3438
贤	-3439
贩	-3440
轮	-3441
辐	-3442
达	-3443
迁	-3444
迎	-3445
迷	-3446
迹	-3447
逆	-3448
遇	-3449
遭	-3450
邪	-3451
释	-3452
铁	-3453
阱	-3454
阴	-3455
飘	-3456
马	-3457
鲁	-3458
D	-3459
V	-3460
h	-3461
s	-3462
乖	-3463
井	-3464
亡	-3465
享	-3466
亲	-3467
今	-3468
伤	-3469
伴	-3470
佳	-3471
僵	-3472
养	-3473
写	-3474
初	-3475
卡	-3476
卫	-3477
参	-3478
司	-3479
吃	-3480
告	-3481
哲	-3482
圈	-3483
均	-3484
坚	-3485
坦	-3486
墙	-3487
增	-3488
契	-3489
奢	-3490
安	-3491
宗	-3492
宣	-3493
尽	-3494
岗	-3495
崩	-3496
市	-3497
师	-3498
年	-3499
张	-3500
微	-3501
怕	-3502
怜	-3503
截	-3504
托	-3505
批	-3506
找	-3507
抛	-3508
拆	-3509
挂	-3510
捆	-3511
捏	-3512
损	-3513
掩	-3514
描	-3515
搞	-3516
携	-3517
政	-3518
敌	-3519
料	-3520
早	-3521
晓	-3522
暗	-3523
朝	-3524
术	-3525
朴	-3526
枝	-3527
枪	-3528
查	-3529
校	-3530
梦	-3531
梯	-3532
械	-3533
池	-3534
沌	-3535
油	-3536
治	-3537
泥	-3538
浩	-3539
涌	-3540
涣	-3541
淡	-3542
滞	-3543
漠	-3544
炮	-3545
炸	-3546
烦	-3547
熟	-3548
爱	-3549
牙	-3550
瑗	-3551
电	-3552
疯	-3553
症	-3554
痴	-3555
皮	-3556
盈	-3557
盖	-3558
省	-3559
瞻	-3560
短	-3561
石	-3562
砖	-3563
碎	-3564
祸	-3565
科	-3566
移	-3567
竞	-3568
章	-3569
紧	-3570
练	-3571
绳	-3572
肆	-3573
腾	-3574
般	-3575
良	-3576
节	-3577
苦	-3578
范	-3579
茬	-3580
荡	-3581
著	-3582
虫	-3583
蛋	-3584
蛮	-3585
蜜	-3586
血	-3587
衍	-3588
衔	-3589
衰	-3590
诉	-3591
诋	-3592
详	-3593
谨	-3594
贱	-3595
赏	-3596
跑	-3597
跟	-3598
跳	-3599
躺	-3600
辅	-3601
辟	-3602
边	-3603
迥	-3604
途	-3605
速	-3606
邻	-3607
醒	-3608
针	-3609
销	-3610
闭	-3611
阻	-3612
隐	-3613
障	-3614
雪	-3615
音	-3616
颖	-3617
颜	-3618
颠	-3619
鬼	-3620
魂	-3621
鲜	-3622
麻	-3623
鼎	-3624
$	-3625
%	-3626
+	-3627
1	-3628
5	-3629
8	-3630
9	-3631
=	-3632
A	-3633
M	-3634
X	-3635
[	-3636
]	-3637
p	-3638
~	-3639
丁	-3640
专	-3641
丛	-3642
举	-3643
久	-3644
乘	-3645
乳	-3646
予	-3647
五	-3648
仆	-3649
仇	-3650
介	-3651
仓	-3652
仔	-3653
仙	-3654
令	-3655
仲	-3656
伊	-3657
休	-3658
伟	-3659
估	-3660
低	-3661
余	-3662
佛	-3663
侈	-3664
侧	-3665
促	-3666
倡	-3667
倾	-3668
傲	-3669
傻	-3670
僚	-3671
兆	-3672
光	-3673
八	-3674
兴	-3675
兵	-3676
兼	-3677
兽	-3678
冒	-3679
冕	-3680
冷	-3681
凋	-3682
刀	-3683
列	-3684
刚	-3685
剑	-3686
剥	-3687
剩	-3688
努	-3689
勇	-3690
勋	-3691
匠	-3692
医	-3693
千	-3694
卑	-3695
印	-3696
厉	-3697
压	-3698
厌	-3699
友	-3700
叙	-3701
叠	-3702
右	-3703
吊	-3704
吓	-3705
吹	-3706
呆	-3707
呵	-3708
呼	-3709
咒	-3710
哀	-3711
唾	-3712
啊	-3713
喜	-3714
嗨	-3715
嘴	-3716
噪	-3717
园	-3718
圆	-3719
坐	-3720
坝	-3721
城	-3722
堡	-3723
壁	-3724
士	-3725
壮	-3726
声	-3727
壳	-3728
备	-3729
夫	-3730
夹	-3731
奈	-3732
奉	-3733
奏	-3734
奔	-3735
奥	-3736
妙	-3737
委	-3738
娇	-3739
媒	-3740
嫁	-3741
宜	-3742
室	-3743
家	-3744
宽	-3745
封	-3746
尤	-3747
屡	-3748
左	-3749
帛	-3750
幺	-3751
府	-3752
废	-3753
庸	-3754
弦	-3755
弯	-3756
弹	-3757
彼	-3758
忘	-3759
怖	-3760
怪	-3761
恼	-3762
惜	-3763
惟	-3764
慈	-3765
慌	-3766
慢	-3767
懦	-3768
户	-3769
扎	-3770
扑	-3771
扼	-3772
技	-3773
把	-3774
抓	-3775
抗	-3776
报	-3777
拉	-3778
拓	-3779
拯	-3780
拼	-3781
拾	-3782
挟	-3783
振	-3784
捷	-3785
摒	-3786
撤	-3787
撼	-3788
收	-3789
斥	-3790
日	-3791
昆	-3792
昌	-3793
昏	-3794
昧	-3795
晚	-3796
晦	-3797
暂	-3798
暧	-3799
朋	-3800
朗	-3801
末	-3802
束	-3803
杠	-3804
梅	-3805
棘	-3806
槽	-3807
檐	-3808
欢	-3809
款	-3810
歌	-3811
武	-3812
殊	-3813
毕	-3814
民	-3815
沛	-3816
河	-3817
沾	-3818
洁	-3819
洽	-3820
浅	-3821
浇	-3822
海	-3823
涂	-3824
涨	-3825
涩	-3826
涵	-3827
淆	-3828
渡	-3829
溉	-3830
漏	-3831
潭	-3832
潮	-3833
烈	-3834
烤	-3835
热	-3836
煎	-3837
熏	-3838
熬	-3839
燃	-3840
爬	-3841
爽	-3842
牛	-3843
犯	-3844
狗	-3845
狩	-3846
狱	-3847
猎	-3848
猫	-3849
獠	-3850
玄	-3851
珍	-3852
班	-3853
琢	-3854
瑕	-3855
甄	-3856
畜	-3857
疗	-3858
疫	-3859
疵	-3860
癌	-3861
盐	-3862
盲	-3863
眼	-3864
瞎	-3865
瞬	-3866
研	-3867
碍	-3868
碾	-3869
祖	-3870
福	-3871
秩	-3872
积	-3873
稀	-3874
穷	-3875
站	-3876
竟	-3877
竭	-3878
笑	-3879
筛	-3880
箱	-3881
籍	-3882
糖	-3883
糙	-3884
累	-3885
红	-3886
纷	-3887
纸	-3888
绘	-3889
绞	-3890
绥	-3891
综	-3892
绽	-3893
缄	-3894
缘	-3895
缝	-3896
缪	-3897
罗	-3898
罢	-3899
翔	-3900
翱	-3901
翼	-3902
耀	-3903
肉	-3904
肠	-3905
股	-3906
肢	-3907
肮	-3908
胆	-3909
胡	-3910
脏	-3911
脚	-3912
腐	-3913
腥	-3914
腿	-3915
臆	-3916
舍	-3917
舞	-3918
航	-3919
艰	-3920
苟	-3921
茫	-3922
荆	-3923
药	-3924
莫	-3925
菩	-3926
萎	-3927
萨	-3928
蔑	-3929
蕴	-3930
薄	-3931
虎	-3932
虐	-3933
虑	-3934
虚	-3935
蛛	-3936
蜘	-3937
蝶	-3938
螺	-3939
街	-3940
袖	-3941
裁	-3942
裂	-3943
裹	-3944
覆	-3945
誉	-3946
训	-3947
讯	-3948
诅	-3949
诈	-3950
诠	-3951
诡	-3952
诲	-3953
诺	-3954
谓	-3955
豪	-3956
账	-3957
贪	-3958
贯	-3959
赋	-3960
赌	-3961
赎	-3962
赢	-3963
趋	-3964
跃	-3965
蹄	-3966
蹈	-3967
躯	-3968
轧	-3969
轰	-3970
轴	-3971
迈	-3972
违	-3973
迟	-3974
迫	-3975
退	-3976
遁	-3977
遗	-3978
遥	-3979
鄙	-3980
酒	-3981
酝	-3982
酷	-3983
酿	-3984
钝	-3985
钥	-3986
钻	-3987
铜	-3988
锁	-3989
锋	-3990
阐	-3991
队	-3992
陶	-3993
