<unk>	0
<pad>	0
<bos>	0
<eos>	0
<mask>	0
<ghost>	0
一种	-0
人类	-1
我们	-2
弟子	-3
本身	-4
这种	-5
一个	-6
是一种	-7
那么	-8
可以	-9
没有	-10
思想	-11
特门	-12
特门那	-13
属性	-14
),	-15
魔法	-16
存在	-17
但是	-18
所以	-19
不是	-20
社会	-21
时代	-22
如果	-23
▁弟子	-24
社群	-25
人类的	-26
人的	-27
或者	-28
问题	-29
判断	-30
成为	-31
未来	-32
自己	-33
什么	-34
力量	-35
机制	-36
▁特门那	-37
知识	-38
就是	-39
无论	-40
态的	-41
真正	-42
无法	-43
变革	-44
必要	-45
必然	-46
必须	-47
精神	-48
这些	-49
诸弟子	-50
知道	-51
如何	-52
形式	-53
组织	-54
而是	-55
需要	-56
不仅	-57
人们	-58
状态	-59
生命	-60
一定	-61
则是	-62
虽然	-63
成为了	-64
语言	-65
功能	-66
建立	-67
这里	-68
如此	-69
往往	-70
情况	-71
抽象	-72
条件	-73
行动	-74
观念	-75
体的	-76
吾等	-77
简单	-78
自然	-79
还是	-80
一切	-81
一点	-82
价值	-83
并不	-84
魔法使	-85
匹配	-86
本质	-87
矛盾	-88
自我	-89
”,	-90
事实	-91
出现	-92
即便	-93
最优	-94
下的	-95
其他	-96
意志	-97
正是	-98
的是	-99
变革者	-100
于此	-101
局部	-102
来说	-103
标准	-104
行为	-105
一样	-106
作为	-107
凝聚	-108
相对	-109
这个	-110
重要	-111
方式	-112
的人	-113
程度	-114
系统	-115
逻辑	-116
都是	-117
本身的	-118
这一点	-119
世界	-120
东西	-121
两种	-122
基本	-123
整个	-124
是否	-125
物自	-126
环境	-127
辞藻	-128
在这里	-129
并不是	-130
真正的	-131
健康	-132
动态	-133
越是	-134
运动	-135
乃至	-136
原始	-137
只是	-138
因为	-139
工作	-140
思维	-141
来自	-142
超越	-143
不同	-144
世间	-145
也是	-146
关系	-147
决定	-148
分支	-149
避免	-150
简单的	-151
从而	-152
任何	-153
信息	-154
全局	-155
内部	-156
取决	-157
影响	-158
成就	-159
理解	-160
一个人	-161
必要的	-162
思想的	-163
的一种	-164
▁诸弟子	-165
不能	-166
何者	-167
原象	-168
思考	-169
时空	-170
智慧	-171
流动	-172
稳定	-173
自由	-174
要想	-175
运营	-176
造成	-177
面对	-178
的力量	-179
的问题	-180
而是一种	-181
一旦	-182
不可	-183
依然	-184
利益	-185
基于	-186
幻想	-187
改变	-188
生活	-189
必然要	-190
上的	-191
体现	-192
决策	-193
奖励	-194
完全	-195
恶魔	-196
文化	-197
无可	-198
诸等	-199
道路	-200
除了	-201
情况下	-202
绝不是	-203
变化	-204
可能	-205
复制	-206
多数	-207
实际	-208
局域	-209
开始	-210
意识	-211
物质	-212
脱离	-213
虔问	-214
质量	-215
转化	-216
过程	-217
部分	-218
取决于	-219
时代的	-220
组织的	-221
时代精神	-222
中的	-223
准确	-224
反应	-225
对于	-226
应该	-227
怎么	-228
概念	-229
模式	-230
注意	-231
生存	-232
真实	-233
词藻	-234
资源	-235
运转	-236
进行	-237
动态的	-238
在这种	-239
大多数	-240
属性的	-241
未来的	-242
物自体	-243
社群的	-244
如果没有	-245
▁故	-246
一些	-247
一时	-248
上面	-249
使其	-250
冲动	-251
冲突	-252
复杂	-253
就像	-254
所有	-255
手段	-256
承认	-257
无有	-258
权位	-259
桌子	-260
经验	-261
角色	-262
起来	-263
选择	-264
通过	-265
道德	-266
非是	-267
频率	-268
是人类	-269
社会的	-270
成为了一种	-271
临界	-272
他们	-273
以外	-274
作用	-275
使用	-276
受到	-277
只有	-278
基础	-279
好的	-280
当然	-281
思辨	-282
战争	-283
教育	-284
方案	-285
方法	-286
无疑	-287
框架	-288
源自	-289
甚至	-290
直接	-291
缺陷	-292
这是	-293
链条	-294
决定了	-295
原知识	-296
可以说	-297
如此的	-298
建立在	-299
无论是	-300
的必要	-301
的状态	-302
避免的	-303
凝聚态的	-304
)。	-305
..	-306
产生	-307
判定	-308
到的	-309
办法	-310
差异	-311
心理	-312
时候	-313
是然	-314
有机	-315
权力	-316
活动	-317
经济	-318
能力	-319
解决	-320
评判	-321
诚然	-322
通常	-323
领导	-324
不仅仅	-325
人们的	-326
凝聚态	-327
的本质	-328
那么就	-329
)”	-330
▁若	-331
之间	-332
也好	-333
事情	-334
关键	-335
告诫	-336
和谐	-337
品德	-338
希望	-339
性质	-340
愚蠢	-341
教授	-342
智识	-343
更加	-344
更多	-345
棋盘	-346
现实	-347
符合	-348
自洽	-349
诘问	-350
超然	-351
还有	-352
通用	-353
遵循	-354
难以	-355
首先	-356
也就是	-357
才可以	-358
的存在	-359
重要的	-360
只是一种	-361
不在	-362
不开	-363
不得	-364
丧失	-365
之道	-366
以此	-367
先天	-368
发生	-369
变动	-370
只要	-371
实在	-372
应允	-373
形成	-374
心灵	-375
性的	-376
意象	-377
才是	-378
抉择	-379
接受	-380
新的	-381
最大	-382
构成	-383
样的	-384
正法	-385
自身	-386
认知	-387
超感	-388
身体	-389
迭代	-390
阶段	-391
限制	-392
准确的	-393
往往是	-394
我们也	-395
我们的	-396
抽象的	-397
注意力	-398
状态的	-399
的东西	-400
的思想	-401
程度上	-402
造成的	-403
也就是说	-404
LO	-405
▁“	-406
之时	-407
也许	-408
事物	-409
亦然	-410
仁神	-411
传播	-412
何以	-413
先知	-414
兑换	-415
凭证	-416
分析	-417
制度	-418
前提	-419
合法	-420
唯一	-421
处理	-422
完成	-423
定义	-424
属于	-425
已经	-426
师曰	-427
平衡	-428
归纳	-429
推导	-430
措辞	-431
撬动	-432
来看	-433
永远	-434
清楚	-435
灾难	-436
知悉	-437
端点	-438
身上	-439
除非	-440
LOY	-441
了一种	-442
存在于	-443
并没有	-444
源自于	-445
的本身	-446
离不开	-447
魔法师	-448
PLOY	-449
物自体的	-450
超然合法	-451
那么一定	-452
那么我们	-453
▁弟子诘问	-454
教授诸弟子	-455
无可避免的	-456
,“	-457
”。	-458
▁如	-459
付出	-460
充满	-461
关联	-462
利用	-463
危险	-464
原使	-465
后的	-466
吾神	-467
周期	-468
商业	-469
地域	-470
天使	-471
存储	-472
就会	-473
师焉	-474
应用	-475
成功	-476
承担	-477
改革	-478
模拟	-479
毁灭	-480
汝等	-481
然而	-482
由此	-483
的原	-484
的多	-485
的根	-486
第二	-487
结合	-488
结果	-489
群体	-490
而不	-491
职业	-492
联系	-493
记忆	-494
设计	-495
识由	-496
负责	-497
这样	-498
释道	-499
为什么	-500
但是其	-501
匹配的	-502
实际上	-503
形式的	-504
必须要	-505
无疑是	-506
是怎么	-507
本质上	-508
机制的	-509
来自于	-510
的过程	-511
而这种	-512
若于此	-513
首先得	-514
▁人类的	-515
全局最优	-516
原始冲动	-517
局部最优	-518
所以我们	-519
无论如何	-520
的情况下	-521
在这里我们	-522
)“	-523
”)	-524
不会	-525
不知	-526
不过	-527
主义	-528
之中	-529
之前	-530
于山	-531
交融	-532
人是	-533
人格	-534
体系	-535
修行	-536
全然	-537
其中	-538
具有	-539
内心	-540
分配	-541
创伤	-542
占据	-543
即时	-544
同样	-545
后天	-546
否则	-547
在于	-548
天然	-549
失败	-550
定的	-551
实现	-552
容易	-553
少的	-554
嵌套	-555
工具	-556
引用	-557
,	-558
的	-559
是	-560
一	-561
人	-562
不	-563
种	-564
(	-565
)	-566
▁	-567
有	-568
而	-569
在	-570
这	-571
以	-572
;	-573
之	-574
于	-575
然	-576
无	-577
自	-578
如	-579
其	-580
者	-581
为	-582
法	-583
可	-584
“	-585
”	-586
与	-587
类	-588
要	-589
那	-590
我	-591
们	-592
性	-593
时	-594
个	-595
动	-596
就	-597
来	-598
成	-599
本	-600
子	-601
了	-602
么	-603
此	-604
能	-605
上	-606
想	-607
知	-608
也	-609
思	-610
必	-611
体	-612
态	-613
身	-614
会	-615
生	-616
对	-617
定	-618
则	-619
何	-620
正	-621
社	-622
或	-623
道	-624
非	-625
中	-626
理	-627
弟	-628
变	-629
行	-630
存	-631
力	-632
质	-633
到	-634
实	-635
所	-636
神	-637
言	-638
问	-639
特	-640
意	-641
量	-642
属	-643
代	-644
分	-645
诸	-646
从	-647
现	-648
识	-649
得	-650
制	-651
门	-652
大	-653
魔	-654
原	-655
式	-656
但	-657
没	-658
。	-659
使	-660
化	-661
最	-662
等	-663
说	-664
象	-665
即	-666
同	-667
作	-668
用	-669
决	-670
并	-671
运	-672
论	-673
吾	-674
基	-675
系	-676
事	-677
判	-678
果	-679
世	-680
应	-681
机	-682
面	-683
多	-684
智	-685
群	-686
下	-687
真	-688
部	-689
只	-690
局	-691
义	-692
出	-693
故	-694
度	-695
形	-696
往	-697
物	-698
相	-699
超	-700
方	-701
观	-702
重	-703
未	-704
仅	-705
情	-706
都	-707
断	-708
点	-709
合	-710
由	-711
至	-712
越	-713
革	-714
:	-715
过	-716
题	-717
样	-718
需	-719
些	-720
立	-721
先	-722
全	-723
命	-724
感	-725
亦	-726
念	-727
若	-728
转	-729
己	-730
更	-731
还	-732
间	-733
准	-734
单	-735
源	-736
经	-737
?	-738
功	-739
却	-740
什	-741
因	-742
界	-743
通	-744
关	-745
受	-746
天	-747
接	-748
条	-749
状	-750
精	-751
解	-752
心	-753
难	-754
便	-755
建	-756
着	-757
组	-758
配	-759
里	-760
师	-761
开	-762
语	-763
位	-764
和	-765
恶	-766
离	-767
优	-768
导	-769
德	-770
始	-771
程	-772
织	-773
虽	-774
他	-775
件	-776
信	-777
失	-778
活	-779
外	-780
改	-781
数	-782
明	-783
造	-784
须	-785
乎	-786
依	-787
利	-788
好	-789
认	-790
内	-791
否	-792
复	-793
将	-794
整	-795
标	-796
藻	-797
反	-798
后	-799
志	-800
教	-801
业	-802
价	-803
况	-804
模	-805
环	-806
前	-807
才	-808
绝	-809
辞	-810
限	-811
境	-812
完	-813
承	-814
抽	-815
权	-816
根	-817
比	-818
流	-819
确	-820
简	-821
除	-822
值	-823
域	-824
常	-825
段	-826
灵	-827
且	-828
两	-829
切	-830
品	-831
新	-832
空	-833
维	-834
辨	-835
发	-836
它	-837
构	-838
看	-839
进	-840
临	-841
场	-842
统	-843
高	-844
匹	-845
善	-846
工	-847
引	-848
盾	-849
矛	-850
远	-851
主	-852
健	-853
冲	-854
向	-855
地	-856
少	-857
战	-858
换	-859
文	-860
聚	-861
链	-862
当	-863
提	-864
支	-865
皆	-866
结	-867
考	-868
路	-869
凝	-870
焉	-871
二	-872
任	-873
处	-874
影	-875
适	-876
避	-877
像	-878
取	-879
呢	-880
很	-881
曰	-882
稳	-883
词	-884
辑	-885
逻	-886
集	-887
频	-888
东	-889
修	-890
幻	-891
择	-892
率	-893
西	-894
资	-895
起	-896
释	-897
乃	-898
产	-899
免	-900
又	-901
学	-902
康	-903
手	-904
推	-905
汝	-906
被	-907
该	-908
习	-909
元	-910
具	-911
归	-912
息	-913
愚	-914
气	-915
脱	-916
指	-917
效	-918
易	-919
衡	-920
觉	-921
际	-922
传	-923
入	-924
响	-925
差	-926
慧	-927
据	-928
星	-929
极	-930
益	-931
称	-932
端	-933
策	-934
营	-935
角	-936
调	-937
陷	-938
你	-939
加	-940
录	-941
架	-942
概	-943
联	-944
虔	-945
视	-946
讲	-947
随	-948
.	-949
L	-950
创	-951
区	-952
去	-953
奖	-954
已	-955
异	-956
循	-957
旦	-958
显	-959
期	-960
某	-961
水	-962
注	-963
直	-964
符	-965
第	-966
级	-967
缺	-968
见	-969
证	-970
诚	-971
验	-972
争	-973
交	-974
几	-975
励	-976
回	-977
层	-978
律	-979
望	-980
演	-981
疑	-982
许	-983
设	-984
阶	-985
书	-986
务	-987
唯	-988
杂	-989
棋	-990
突	-991
色	-992
谐	-993
达	-994
选	-995
N	-996
P	-997
候	-998
做	-999
别	-1000
办	-1001
周	-1002
射	-1003
尊	-1004
小	-1005
怎	-1006
持	-1007
服	-1008
案	-1009
测	-1010
灾	-1011
约	-1012
置	-1013
询	-1014
近	-1015
述	-1016
遵	-1017
领	-1018
三	-1019
保	-1020
偏	-1021
刻	-1022
告	-1023
太	-1024
展	-1025
授	-1026
桌	-1027
步	-1028
灭	-1029
甚	-1030
盘	-1031
素	-1032
育	-1033
诘	-1034
走	-1035
静	-1036
靠	-1037
预	-1038
首	-1039
允	-1040
再	-1041
型	-1042
容	-1043
察	-1044
平	-1045
强	-1046
征	-1047
斯	-1048
框	-1049
毁	-1050
求	-1051
清	-1052
础	-1053
示	-1054
答	-1055
索	-1056
胜	-1057
规	-1058
评	-1059
谁	-1060
轻	-1061
载	-1062
错	-1063
风	-1064
-	-1065
e	-1066
r	-1067
互	-1068
仁	-1069
共	-1070
凭	-1071
员	-1072
固	-1073
套	-1074
守	-1075
带	-1076
弱	-1077
待	-1078
御	-1079
拟	-1080
既	-1081
景	-1082
板	-1083
析	-1084
格	-1085
济	-1086
深	-1087
算	-1088
纳	-1089
藏	-1090
表	-1091
记	-1092
话	-1093
赞	-1094
输	-1095
金	-1096
乱	-1097
付	-1098
似	-1099
充	-1100
危	-1101
喻	-1102
困	-1103
坏	-1104
希	-1105
延	-1106
总	-1107
撬	-1108
普	-1109
洽	-1110
混	-1111
管	-1112
终	-1113
职	-1114
蠢	-1115
计	-1116
诫	-1117
谓	-1118
责	-1119
键	-1120
音	-1121
Y	-1122
丧	-1123
伤	-1124
占	-1125
各	-1126
吗	-1127
哉	-1128
商	-1129
头	-1130
官	-1131
悉	-1132
惊	-1133
愿	-1134
抉	-1135
投	-1136
拥	-1137
枢	-1138
永	-1139
激	-1140
火	-1141
王	-1142
目	-1143
破	-1144
纪	-1145
纯	-1146
线	-1147
罪	-1148
背	-1149
胞	-1150
致	-1151
花	-1152
让	-1153
课	-1154
迭	-1155
长	-1156
颂	-1157
O	-1158
S	-1159
a	-1160
份	-1161
例	-1162
俗	-1163
储	-1164
兑	-1165
公	-1166
及	-1167
双	-1168
圣	-1169
山	-1170
打	-1171
执	-1172
担	-1173
措	-1174
播	-1175
楚	-1176
次	-1177
洞	-1178
满	-1179
禀	-1180
绪	-1181
续	-1182
缘	-1183
网	-1184
融	-1185
请	-1186
谛	-1187
负	-1188
贵	-1189
践	-1190
遍	-1191
降	-1192
险	-1193
项	-1194
骗	-1195
黑	-1196
伪	-1197
偈	-1198
叹	-1199
四	-1200
奇	-1201
密	-1202
干	-1203
座	-1204
径	-1205
忆	-1206
恐	-1207
护	-1208
树	-1209
梦	-1210
欲	-1211
波	-1212
涉	-1213
片	-1214
略	-1215
病	-1216
究	-1217
细	-1218
老	-1219
脆	-1220
脚	-1221
获	-1222
误	-1223
读	-1224
败	-1225
足	-1226
锚	-1227
闻	-1228
默	-1229
2	-1230
i	-1231
严	-1232
乐	-1233
亲	-1234
住	-1235
供	-1236
兮	-1237
包	-1238
十	-1239
历	-1240
叠	-1241
名	-1242
启	-1243
器	-1244
团	-1245
妙	-1246
尽	-1247
嵌	-1248
币	-1249
布	-1250
弃	-1251
弈	-1252
弹	-1253
恒	-1254
悲	-1255
惧	-1256
懂	-1257
携	-1258
放	-1259
斗	-1260
木	-1261
欣	-1262
每	-1263
独	-1264
留	-1265
盖	-1266
私	-1267
秩	-1268
童	-1269
签	-1270
节	-1271
赋	-1272
辩	-1273
/	-1274
R	-1275
T	-1276
万	-1277
众	-1278
偶	-1279
光	-1280
养	-1281
升	-1282
卖	-1283
另	-1284
土	-1285
夫	-1286
字	-1287
室	-1288
害	-1289
岂	-1290
底	-1291
彰	-1292
忽	-1293
惑	-1294
探	-1295
控	-1296
撞	-1297
救	-1298
旋	-1299
替	-1300
死	-1301
照	-1302
爱	-1303
球	-1304
白	-1305
碰	-1306
粹	-1307
糊	-1308
络	-1309
菌	-1310
萨	-1311
诞	-1312
货	-1313
车	-1314
辅	-1315
追	-1316
逆	-1317
遇	-1318
钝	-1319
阴	-1320
顺	-1321
魄	-1322
鸡	-1323
K	-1324
V	-1325
\	-1326
s	-1327
t	-1328
侵	-1329
克	-1330
六	-1331
减	-1332
初	-1333
剧	-1334
卷	-1335
句	-1336
号	-1337
吸	-1338
味	-1339
围	-1340
块	-1341
堆	-1342
塑	-1343
塔	-1344
够	-1345
契	-1346
妄	-1347
姬	-1348
客	-1349
尝	-1350
尺	-1351
巧	-1352
幸	-1353
广	-1354
序	-1355
彷	-1356
徨	-1357
微	-1358
怜	-1359
悖	-1360
戏	-1361
扩	-1362
抱	-1363
拉	-1364
掉	-1365
旧	-1366
杀	-1367
柄	-1368
染	-1369
核	-1370
梁	-1371
棒	-1372
母	-1373
毫	-1374
浊	-1375
父	-1376
牙	-1377
狂	-1378
狭	-1379
瓦	-1380
申	-1381
痛	-1382
睹	-1383
竟	-1384
笑	-1385
笼	-1386
粗	-1387
糕	-1388
糟	-1389
给	-1390
继	-1391
缩	-1392
罕	-1393
美	-1394
脑	-1395
舍	-1396
般	-1397
茧	-1398
草	-1399
莫	-1400
触	-1401
贤	-1402
赖	-1403
较	-1404
连	-1405
钵	-1406
阅	-1407
防	-1408
魂	-1409
H	-1410
y	-1411
久	-1412
乖	-1413
云	-1414
今	-1415
仍	-1416
佐	-1417
余	-1418
佳	-1419
停	-1420
偷	-1421
击	-1422
刺	-1423
助	-1424
势	-1425
半	-1426
博	-1427
口	-1428
古	-1429
叫	-1430
史	-1431
呈	-1432
哪	-1433
唇	-1434
图	-1435
坦	-1436
壤	-1437
奢	-1438
姿	-1439
季	-1440
孤	-1441
审	-1442
宣	-1443
寻	-1444
尔	-1445
居	-1446
屋	-1447
市	-1448
帝	-1449
快	-1450
怀	-1451
悚	-1452
惯	-1453
愈	-1454
房	-1455
扑	-1456
拓	-1457
括	-1458
捏	-1459
排	-1460
搭	-1461
操	-1462
散	-1463
暴	-1464
曲	-1465
札	-1466
桥	-1467
检	-1468
欺	-1469
止	-1470
毒	-1471
沉	-1472
泉	-1473
炮	-1474
熟	-1475
牢	-1476
珐	-1477
琅	-1478
百	-1479
皇	-1480
石	-1481
票	-1482
福	-1483
秘	-1484
移	-1485
纷	-1486
罗	-1487
耦	-1488
聪	-1489
肯	-1490
脉	-1491
落	-1492
薄	-1493
虑	-1494
讨	-1495
试	-1496
谈	-1497
貌	-1498
迷	-1499
逃	-1500
遂	-1501
遭	-1502
野	-1503
鎏	-1504
钱	-1505
阳	-1506
附	-1507
隐	-1508
雨	-1509
顿	-1510
飘	-1511
食	-1512
马	-1513
驻	-1514
鲁	-1515
!	-1516
b	-1517
c	-1518
f	-1519
l	-1520
m	-1521
n	-1522
o	-1523
u	-1524
v	-1525
九	-1526
买	-1527
予	-1528
亡	-1529
伽	-1530
侈	-1531
倒	-1532
写	-1533
匣	-1534
医	-1535
协	-1536
卫	-1537
友	-1538
召	-1539
君	-1540
吧	-1541
含	-1542
听	-1543
呼	-1544
咎	-1545
哀	-1546
哲	-1547
唤	-1548
喜	-1549
国	-1550
墨	-1551
士	-1552
壮	-1553
宜	-1554
宫	-1555
富	-1556
巴	-1557
庇	-1558
库	-1559
弄	-1560
患	-1561
悬	-1562
懒	-1563
懵	-1564
戈	-1565
扭	-1566
扮	-1567
挥	-1568
掌	-1569
握	-1570
揣	-1571
摆	-1572
撑	-1573
撒	-1574
擎	-1575
收	-1576
攻	-1577
敬	-1578
料	-1579
族	-1580
映	-1581
晴	-1582
朵	-1583
松	-1584
校	-1585
桎	-1586
梏	-1587
歌	-1588
殉	-1589
残	-1590
毕	-1591
污	-1592
沌	-1593
河	-1594
治	-1595
泥	-1596
消	-1597
涌	-1598
涣	-1599
潜	-1600
灌	-1601
熙	-1602
璃	-1603
痴	-1604
皮	-1605
盆	-1606
省	-1607
码	-1608
磨	-1609
祂	-1610
祸	-1611
科	-1612
稀	-1613
章	-1614
红	-1615
绑	-1616
绕	-1617
缓	-1618
编	-1619
罐	-1620
肛	-1621
苦	-1622
莎	-1623
虎	-1624
衍	-1625
补	-1626
衰	-1627
装	-1628
谅	-1629
谎	-1630
财	-1631
贩	-1632
赎	-1633
赏	-1634
踏	-1635
轮	-1636
辐	-1637
迁	-1638
迎	-1639
迹	-1640
途	-1641
邪	-1642
铁	-1643
阱	-1644
障	-1645
雏	-1646
雪	-1647
D	-1648
h	-1649
乳	-1650
井	-1651
亚	-1652
享	-1653
介	-1654
令	-1655
仰	-1656
休	-1657
伴	-1658
低	-1659
倾	-1660
傲	-1661
僵	-1662
劫	-1663
匠	-1664
千	-1665
华	-1666
卡	-1667
印	-1668
厄	-1669
压	-1670
参	-1671
司	-1672
吃	-1673
吻	-1674
咒	-1675
嘴	-1676
囊	-1677
圈	-1678
均	-1679
坚	-1680
培	-1681
墙	-1682
增	-1683
壁	-1684
备	-1685
奈	-1686
孕	-1687
宁	-1688
安	-1689
宗	-1690
宽	-1691
岗	-1692
崩	-1693
年	-1694
张	-1695
彼	-1696
忘	-1697
怕	-1698
恭	-1699
慕	-1700
慢	-1701
截	-1702
戾	-1703
托	-1704
批	-1705
找	-1706
技	-1707
抛	-1708
抵	-1709
拆	-1710
拒	-1711
挂	-1712
捆	-1713
损	-1714
掩	-1715
描	-1716
搞	-1717
政	-1718
敌	-1719
敛	-1720
早	-1721
旬	-1722
晓	-1723
暂	-1724
暗	-1725
曼	-1726
曾	-1727
朝	-1728
术	-1729
朴	-1730
材	-1731
枝	-1732
枪	-1733
查	-1734
梯	-1735
械	-1736
欢	-1737
殊	-1738
毋	-1739
池	-1740
沟	-1741
油	-1742
浩	-1743
海	-1744
涂	-1745
淡	-1746
温	-1747
游	-1748
滞	-1749
漠	-1750
炸	-1751
烦	-1752
焊	-1753
狮	-1754
玄	-1755
玻	-1756
瑗	-1757
瓶	-1758
甄	-1759
电	-1760
疯	-1761
症	-1762
皿	-1763
盈	-1764
盛	-1765
眼	-1766
瞻	-1767
短	-1768
研	-1769
砖	-1770
碍	-1771
碎	-1772
碾	-1773
积	-1774
稠	-1775
穷	-1776
竞	-1777
筹	-1778
粮	-1779
紧	-1780
累	-1781
繁	-1782
纹	-1783
练	-1784
绎	-1785
绳	-1786
缄	-1787
缪	-1788
肆	-1789
腾	-1790
良	-1791
范	-1792
茫	-1793
茬	-1794
荡	-1795
著	-1796
蕴	-1797
虚	-1798
虫	-1799
蛋	-1800
蛮	-1801
蜜	-1802
血	-1803
衔	-1804
裂	-1805
誉	-1806
训	-1807
诉	-1808
诋	-1809
详	-1810
诧	-1811
谨	-1812
谱	-1813
贱	-1814
跃	-1815
跑	-1816
跟	-1817
跳	-1818
躺	-1819
辟	-1820
边	-1821
违	-1822
迥	-1823
速	-1824
逾	-1825
遣	-1826
遥	-1827
邻	-1828
醒	-1829
针	-1830
铭	-1831
销	-1832
闭	-1833
阻	-1834
阿	-1835
陶	-1836
零	-1837
露	-1838
颇	-1839
颖	-1840
颜	-1841
颠	-1842
驱	-1843
鬼	-1844
鲜	-1845
麻	-1846
鼎	-1847
$	-1848
%	-1849
+	-1850
1	-1851
5	-1852
8	-1853
9	-1854
=	-1855
A	-1856
M	-1857
X	-1858
[	-1859
]	-1860
p	-1861
~	-1862
丁	-1863
七	-1864
丑	-1865
专	-1866
丛	-1867
举	-1868
乏	-1869
乘	-1870
五	-1871
仆	-1872
仇	-1873
仓	-1874
仔	-1875
仙	-1876
仲	-1877
仿	-1878
伊	-1879
伟	-1880
伦	-1881
估	-1882
佛	-1883
侧	-1884
促	-1885
倡	-1886
偕	-1887
傻	-1888
僚	-1889
兆	-1890
八	-1891
兴	-1892
兵	-1893
兼	-1894
兽	-1895
冒	-1896
冕	-1897
冠	-1898
冷	-1899
凋	-1900
凡	-1901
刀	-1902
划	-1903
列	-1904
刚	-1905
剑	-1906
剥	-1907
剩	-1908
努	-1909
勇	-1910
勋	-1911
卑	-1912
厉	-1913
厌	-1914
厚	-1915
叙	-1916
右	-1917
吊	-1918
吓	-1919
吹	-1920
呆	-1921
呵	-1922
哆	-1923
唾	-1924
啊	-1925
喃	-1926
嗣	-1927
嗨	-1928
噪	-1929
噫	-1930
园	-1931
圆	-1932
坐	-1933
坝	-1934
城	-1935
堕	-1936
堡	-1937
墓	-1938
声	-1939
壳	-1940
夙	-1941
夹	-1942
奉	-1943
奋	-1944
奏	-1945
奔	-1946
奥	-1947
奴	-1948
妓	-1949
妖	-1950
委	-1951
娇	-1952
娼	-1953
媒	-1954
媾	-1955
嫁	-1956
嫌	-1957
孔	-1958
宪	-1959
家	-1960
寡	-1961
封	-1962
尖	-1963
尤	-1964
尬	-1965
尴	-1966
屡	-1967
峰	-1968
崇	-1969
崖	-1970
左	-1971
帛	-1972
幺	-1973
幼	-1974
庆	-1975
府	-1976
废	-1977
庸	-1978
弥	-1979
弦	-1980
弯	-1981
徒	-1982
忌	-1983
忍	-1984
忙	-1985
怖	-1986
怪	-1987
恋	-1988
恍	-1989
恕	-1990
恩	-1991
恰	-1992
恼	-1993
悟	-1994
悦	-1995
惜	-1996
惟	-1997
惫	-1998
慈	-1999
慌	-2000
懦	-2001
戮	-2002
户	-2003
扎	-2004
扰	-2005
扼	-2006
把	-2007
抓	-2008
抗	-2009
折	-2010
报	-2011
拯	-2012
拼	-2013
拾	-2014
拿	-2015
挟	-2016
振	-2017
捷	-2018
搓	-2019
摒	-2020
撤	-2021
撰	-2022
撼	-2023
擅	-2024
敢	-2025
斥	-2026
日	-2027
旱	-2028
昆	-2029
昌	-2030
昏	-2031
昧	-2032
晚	-2033
晦	-2034
晰	-2035
暧	-2036
月	-2037
朋	-2038
朗	-2039
末	-2040
束	-2041
杠	-2042
林	-2043
栋	-2044
梅	-2045
棘	-2046
槽	-2047
檐	-2048
款	-2049
武	-2050
毗	-2051
民	-2052
氛	-2053
汇	-2054
沛	-2055
沾	-2056
泄	-2057
洁	-2058
洋	-2059
浅	-2060
浇	-2061
浑	-2062
涕	-2063
润	-2064
涨	-2065
涩	-2066
涵	-2067
淆	-2068
渐	-2069
渠	-2070
渡	-2071
溉	-2072
溢	-2073
滋	-2074
漏	-2075
漫	-2076
潭	-2077
潮	-2078
灯	-2079
炬	-2080
烈	-2081
烤	-2082
热	-2083
煎	-2084
熏	-2085
熬	-2086
燃	-2087
爬	-2088
爽	-2089
牛	-2090
牵	-2091
犯	-2092
狗	-2093
狩	-2094
狱	-2095
猎	-2096
猜	-2097
猫	-2098
獠	-2099
玛	-2100
珊	-2101
珍	-2102
珠	-2103
班	-2104
琉	-2105
琐	-2106
琢	-2107
瑕	-2108
瑚	-2109
甘	-2110
甜	-2111
田	-2112
甲	-2113
男	-2114
畜	-2115
疗	-2116
疫	-2117
疲	-2118
疵	-2119
瘤	-2120
癌	-2121
皱	-2122
盐	-2123
监	-2124
盲	-2125
眷	-2126
瞎	-2127
瞬	-2128
瞳	-2129
矢	-2130
礼	-2131
祀	-2132
祖	-2133
祭	-2134
秉	-2135
站	-2136
竭	-2137
笈	-2138
筛	-2139
箱	-2140
籍	-2141
粪	-2142
糖	-2143
糙	-2144
纠	-2145
纭	-2146
纲	-2147
纸	-2148
绘	-2149
绞	-2150
绥	-2151
综	-2152
绽	-2153
缀	-2154
缕	-2155
缝	-2156
罢	-2157
翔	-2158
翱	-2159
翼	-2160
耀	-2161
肃	-2162
肉	-2163
肠	-2164
股	-2165
肢	-2166
肮	-2167
肿	-2168
胆	-2169
胎	-2170
胡	-2171
脊	-2172
脏	-2173
脯	-2174
脸	-2175
腐	-2176
腥	-2177
腿	-2178
臆	-2179
舞	-2180
航	-2181
艰	-2182
艺	-2183
芽	-2184
苟	-2185
英	-2186
荆	-2187
荫	-2188
药	-2189
菩	-2190
萎	-2191
蒙	-2192
蔑	-2193
虐	-2194
蛛	-2195
蜘	-2196
蝶	-2197
螺	-2198
街	-2199
袖	-2200
裁	-2201
裹	-2202
褶	-2203
覆	-2204
览	-2205
讯	-2206
诅	-2207
诈	-2208
译	-2209
诗	-2210
诠	-2211
诡	-2212
诰	-2213
诲	-2214
诺	-2215
谋	-2216
谕	-2217
谬	-2218
谷	-2219
豪	-2220
账	-2221
贪	-2222
贯	-2223
赌	-2224
赡	-2225
赢	-2226
趋	-2227
蹄	-2228
蹈	-2229
躯	-2230
轧	-2231
轰	-2232
轴	-2233
迈	-2234
迟	-2235
迫	-2236
退	-2237
逐	-2238
遁	-2239
遗	-2240
邃	-2241
鄙	-2242
酒	-2243
酝	-2244
酷	-2245
酿	-2246
钟	-2247
钥	-2248
钻	-2249
铜	-2250
铸	-2251
锁	-2252
锋	-2253
镜	-2254
闷	-2255
闸	-2256
阐	-2257
