<unk>	0
<pad>	0
<bos>	0
<eos>	0
<mask>	0
<ghost>	0
▁,	-0
一个	-1
我们	-2
自己	-3
▁[	-4
系统	-5
..	-6
荣格	-7
没有	-8
:“	-9
他们	-10
。”	-11
▁“	-12
因为	-13
如果	-14
什么	-15
自己的	-16
我的	-17
可以	-18
这个	-19
已经	-20
就是	-21
你的	-22
这些	-23
一种	-24
因此	-25
不是	-26
的人	-27
可能	-28
中的	-29
一样	-30
的是	-31
....	-32
能够	-33
生命	-34
世界	-35
▁我	-36
它们	-37
这种	-38
)。	-39
灵魂	-40
但是	-41
那么	-42
所有	-43
通过	-44
他的	-45
知道	-46
一些	-47
这一	-48
这样	-49
存在	-50
时候	-51
理解	-52
需要	-53
人类	-54
出现	-55
开始	-56
》,	-57
时间	-58
精神	-59
这里	-60
▁”	-61
无法	-62
看到	-63
▁·	-64
这是	-65
必须	-66
身上	-67
心理	-68
进行	-69
部分	-70
意识	-71
不能	-72
?”	-73
大的	-74
人的	-75
人们	-76
问题	-77
模型	-78
东西	-79
过程	-80
性的	-81
研究	-82
力量	-83
发生	-84
行为	-85
认为	-86
之间	-87
如何	-88
一切	-89
都是	-90
任何	-91
]《	-92
上的	-93
临界	-94
复杂	-95
发现	-96
思考	-97
在一	-98
完全	-99
系统的	-100
非常	-101
的时候	-102
那些	-103
思想	-104
生活	-105
或者	-106
也是	-107
成为	-108
其他	-109
内容	-110
回路	-111
存量	-112
就像	-113
基督	-114
重要	-115
不同	-116
方式	-117
产生	-118
而且	-119
事件	-120
很多	-121
之后	-122
变成	-123
物种	-124
科学	-125
我们的	-126
出来	-127
组织	-128
变化	-129
简单	-130
起来	-131
荣格在	-132
而是	-133
魔法	-134
变得	-135
目标	-136
就会	-137
经济	-138
不会	-139
太阳	-140
草稿	-141
象征	-142
如果你	-143
▁(	-144
道路	-145
),	-146
事情	-147
理论	-148
出版	-149
的一	-150
是一个	-151
影响	-152
心理学	-153
以及	-154
使用	-155
全集	-156
应该	-157
对于	-158
荣格全集	-159
那里	-160
继续	-161
导致	-162
状态	-163
魔鬼	-164
自我	-165
的神	-166
雪崩	-167
为了	-168
作用	-169
现在	-170
,《	-171
为什么	-172
写道	-173
工作	-174
▁”(	-175
结构	-176
改变	-177
沙堆	-178
的地	-179
如此	-180
所以	-181
自然	-182
意义	-183
新的	-184
情况	-185
例如	-186
事物	-187
快乐	-188
是一	-189
物理	-190
结果	-191
实验	-192
死亡	-193
只有	-194
▁在	-195
由于	-196
社会	-197
黑暗	-198
无意识	-199
定的	-200
在一起	-201
适应	-202
意象	-203
接受	-204
各种	-205
形式	-206
来说	-207
——	-208
多的	-209
想要	-210
你们	-211
时代	-212
分析	-213
死者	-214
腓利	-215
资源	-216
得到	-217
腓利门	-218
作品	-219
从而	-220
荣格全集第	-221
创造	-222
形成	-223
受到	-224
并不	-225
本书	-226
感到	-227
的东西	-228
实际	-229
神的	-230
具有	-231
一直	-232
拥有	-233
深度	-234
平衡	-235
发展	-236
幻想	-237
新书	-238
相信	-239
”,	-240
最终	-241
本质	-242
第二	-243
规则	-244
甚至	-245
自组织	-246
我在	-247
孩子	-248
找到	-249
渴望	-250
进入	-251
黑书	-252
只是	-253
进化	-254
同时	-255
一次	-256
计算	-257
下来	-258
个体	-259
关系	-260
不断	-261
你是	-262
它的	-263
量的	-264
”。	-265
事实	-266
保持	-267
信息	-268
增长	-269
本身	-270
......	-271
相互	-272
能力	-273
的内容	-274
带来	-275
描述	-276
每个	-277
▁●	-278
不要	-279
充满	-280
反馈	-281
的系统	-282
荣格的	-283
视为	-284
在这里	-285
这一点	-286
一个人	-287
他们的	-288
来自	-289
色的	-290
两个	-291
现象	-292
在我	-293
真实	-294
获得	-295
不可	-296
可怕	-297
因而	-298
而言	-299
但我	-300
地震	-301
好的	-302
到的	-303
未来	-304
认识	-305
之间的	-306
知识	-307
语言	-308
模式	-309
的力量	-310
作为	-311
其中	-312
告诉	-313
学家	-314
调节	-315
资本	-316
还是	-317
痛苦	-318
增加	-319
完成	-320
乐美	-321
出的	-322
整个	-323
真正	-324
观察	-325
莎乐美	-326
只能	-327
小的	-328
称为	-329
还有	-330
之前	-331
了一个	-332
而不是	-333
似乎	-334
地球	-335
类似	-336
这样的	-337
也就是	-338
延迟	-339
怎么	-340
生物	-341
表现	-342
通常	-343
功能	-344
令人	-345
关于	-346
同样	-347
ma	-348
你在	-349
恐惧	-350
不到	-351
方法	-352
解释	-353
讨论	-354
都会	-355
。”(	-356
另外	-357
永远	-358
现实	-359
的大	-360
他在	-361
尽管	-362
帮助	-363
幂次	-364
那个	-365
结合	-366
出现在	-367
体的	-368
我不	-369
》(	-370
世纪	-371
代表	-372
定律	-373
机制	-374
正是	-375
注意	-376
所有的	-377
显示	-378
系统中	-379
一位	-380
概念	-381
人类的	-382
er	-383
内在	-384
包括	-385
限制	-386
的一个	-387
大学	-388
并且	-389
愿意	-390
行动	-391
这么	-392
方面	-393
适应性	-394
价值	-395
面前	-396
的方式	-397
”(	-398
▁图	-399
了解	-400
原则	-401
想法	-402
的数	-403
中继续	-404
理性	-405
虽然	-406
一定	-407
化的	-408
基本	-409
的话	-410
程度	-411
速度	-412
,“	-413
也会	-414
再次	-415
原因	-416
回答	-417
接着	-418
站在	-419
▁系统	-420
回到	-421
当然	-422
试图	-423
的地方	-424
ge	-425
来到	-426
活动	-427
神圣	-428
中继续写道	-429
下的	-430
历史	-431
是在	-432
是什么	-433
对立	-434
折磨	-435
更加	-436
然而	-437
超越	-438
以前	-439
弟子	-440
思维	-441
拯救	-442
考虑	-443
邪恶	-444
是一种	-445
简单的	-446
不仅	-447
选择	-448
这本书	-449
▁?	-450
无论	-451
第一	-452
有一个	-453
........	-454
公司	-455
动力	-456
这就是	-457
也不	-458
我的灵魂	-459
利亚	-460
对我	-461
将会	-462
是否	-463
环境	-464
决定	-465
声音	-466
孤独	-467
希望	-468
记录	-469
的事情	-470
到了	-471
增强	-472
控制	-473
温度	-474
并不是	-475
学习	-476
意味	-477
根据	-478
解决	-479
运动	-480
出版社	-481
修改	-482
智慧	-483
稳定	-484
主要	-485
依然	-486
地狱	-487
容易	-488
我已经	-489
他是	-490
只要	-491
最后	-492
自身	-493
观点	-494
难以	-495
重要的	-496
多么	-497
直接	-498
经历	-499
连接	-500
的草稿	-501
▁S	-502
包含	-503
过去	-504
几乎	-505
动物	-506
即使	-507
想象	-508
生命的	-509
的行为	-510
了一	-511
原我	-512
持续	-513
我想	-514
沙漠	-515
自由	-516
的过程	-517
计算机	-518
▁‘	-519
不再	-520
在你	-521
感觉	-522
某个	-523
某些	-524
疯狂	-525
评论	-526
不同的	-527
儿子	-528
斯特	-529
母亲	-530
者的	-531
转化	-532
随机	-533
意味着	-534
一条	-535
动态	-536
基础	-537
属于	-538
建立	-539
时期	-540
灭绝	-541
类型	-542
随着	-543
你会	-544
力的	-545
周围	-546
物质	-547
不可能	-548
分布	-549
斯的	-550
表明	-551
错误	-552
基督教	-553
我看到	-554
仍然	-555
到达	-556
情形	-557
模拟	-558
水平	-559
mage	-560
▁)	-561
哪里	-562
因素	-563
幻象	-564
沙粒	-565
Image	-566
位置	-567
反应	-568
回忆	-569
年的	-570
或许	-571
明显	-572
神秘	-573
联系	-574
动力学	-575
我必须	-576
调节回路	-577
方向	-578
相对	-579
表示	-580
文字	-581
某种	-582
特别	-583
目的	-584
经常	-585
临界态	-586
实际上	-587
情况下	-588
更多的	-589
系统思考	-590
人都	-591
根本	-592
正确	-593
做的	-594
离开	-595
造成	-596
别人	-597
必要	-598
有一	-599
消失	-600
不知道	-601
每一个	-602
没有人	-603
后来	-604
大脑	-605
提供	-606
整体	-607
正在	-608
肯定	-609
让我	-610
》,§	-611
▁”(《	-612
▁:	-613
人口	-614
你就	-615
原始	-616
强大	-617
才能	-618
阿尼	-619
的道路	-620
你要	-621
意志	-622
我是	-623
更多	-624
有效	-625
永恒	-626
。”[	-627
的世界	-628
增强回路	-629
内部	-630
外部	-631
普遍	-632
有些	-633
可怕的	-634
巨大的	-635
in	-636
寻找	-637
成功	-638
状况	-639
直到	-640
破坏	-641
秘密	-642
给我	-643
运作	-644
en	-645
书中	-646
爱的	-647
经过	-648
逐渐	-649
以利亚	-650
个人	-651
十分	-652
它是	-653
并非	-654
政策	-655
相同	-656
竞争	-657
艺术	-658
避免	-659
▁’	-660
混乱	-661
相反	-662
神话	-663
设计	-664
高的	-665
在一个	-666
指的是	-667
认识到	-668
变异	-669
完整	-670
真理	-671
可能会	-672
的时间	-673
自组织临界	-674
也有	-675
价格	-676
听到	-677
多数	-678
实现	-679
征服	-680
怀疑	-681
我对	-682
政府	-683
教授	-684
特征	-685
特门	-686
说的	-687
陷入	-688
的形式	-689
一起	-690
两种	-691
人格	-692
做出	-693
子的	-694
把它	-695
普累	-696
若麻	-697
范围	-698
集体	-699
世界的	-700
特门那	-701
普累若麻	-702
下去	-703
分形	-704
必然	-705
最初	-706
比较	-707
陀罗	-708
一切都	-709
修改的草稿	-710
否则	-711
指出	-712
欲望	-713
波动	-714
生的	-715
约翰	-716
重新	-717
▁我们	-718
如果我	-719
自己身上	-720
▁但	-721
之中	-722
你将	-723
周期	-724
成长	-725
石头	-726
而非	-727
英雄	-728
身体	-729
曼陀罗	-730
▁§	-731
会有	-732
单个	-733
打开	-734
生态	-735
空间	-736
管理	-737
足够	-738
阴影	-739
的问题	-740
▁C	-741
▁f	-742
一般	-743
决策	-744
努力	-745
愚蠢	-746
我也	-747
翻译	-748
许多	-749
首先	-750
事实上	-751
在这个	-752
无法理解	-753
一段	-754
之外	-755
国家	-756
当时	-757
牺牲	-758
突然	-759
说话	-760
高度	-761
的生命	-762
没有什么	-763
▁;	-764
一步	-765
图像	-766
宗教	-767
明白	-768
等待	-769
经验	-770
花园	-771
要求	-772
大多数	-773
把自己	-774
例子	-775
参与	-776
处理	-777
多少	-778
构成	-779
游戏	-780
美丽	-781
超过	-782
面的	-783
回答说	-784
是因为	-785
反馈回路	-786
an	-787
▁你	-788
一下	-789
体验	-790
使得	-791
假设	-792
呈现	-793
抛弃	-794
拉克	-795
期的	-796
正如	-797
眼睛	-798
那样	-799
看起来	-800
让我们	-801
也就是说	-802
深度精神	-803
一旦	-804
全部	-805
处于	-806
抓住	-807
投资	-808
拒绝	-809
更为	-810
领域	-811
写的是	-812
意识到	-813
弗洛	-814
摆脱	-815
有关	-816
朋友	-817
生长	-818
论文	-819
▁——	-820
我们在	-821
主义	-822
准备	-823
外在	-824
定义	-825
将我	-826
流入	-827
红书	-828
它们的	-829
是一位	-830
科学家	-831
(《	-832
冲突	-833
减少	-834
总是	-835
数量	-836
有限	-837
森林	-838
灾难	-839
空洞	-840
谋杀	-841
因为它	-842
因为我	-843
时代精神	-844
on	-845
▁/	-846
▁第	-847
主题	-848
判断	-849
利用	-850
在这	-851
带着	-852
曲线	-853
来越	-854
毫无	-855
流出	-856
爱洛	-857
生产	-858
相关	-859
并没有	-860
的结果	-861
▁他	-862
人和	-863
先知	-864
危险	-865
唯一	-866
喜欢	-867
故事	-868
条件	-869
系列	-870
角度	-871
言语	-872
复杂性	-873
有可能	-874
神圣的	-875
越来越	-876
ti	-877
你不	-878
信号	-879
出生	-880
尝试	-881
技术	-882
拉图	-883
效果	-884
流量	-885
现代	-886
缓慢	-887
陷阱	-888
黎世	-889
另一个	-890
的状态	-891
如果我们	-892
▁s	-893
入到	-894
兴趣	-895
属性	-896
市场	-897
得以	-898
我要	-899
接近	-900
活出	-901
看着	-902
阿布	-903
拉克萨	-904
死者的	-905
的本质	-906
苏黎世	-907
被视为	-908
阿布拉克萨	-909
],	-910
][	-911
先觉	-912
关注	-913
再生	-914
到来	-915
变革	-916
多样	-917
引用	-918
往往	-919
提高	-920
欺骗	-921
满足	-922
爆发	-923
真的	-924
至少	-925
要素	-926
因为他	-927
的意象	-928
这么做	-929
这是一个	-930
不过	-931
之上	-932
十字	-933
战争	-934
聪明	-935
因为你	-936
真正的	-937
▁系统之	-938
上升	-939
依赖	-940
动的	-941
夜里	-942
就能	-943
强迫	-944
很难	-945
愚弄	-946
抄本	-947
标准	-948
HI	-949
也即	-950
图书	-951
大量	-952
层次	-953
特质	-954
符合	-955
边界	-956
降低	-957
预测	-958
也可以	-959
你必须	-960
仅仅	-961
保护	-962
分开	-963
另一	-964
在他	-965
她的	-966
就越	-967
律法	-968
断续	-969
是由	-970
是的	-971
有的	-972
达到	-973
复杂的	-974
真实的	-975
亚菲	-976
取决	-977
地上	-978
奇怪	-979
材料	-980
杠杆	-981
结束	-982
规律	-983
调整	-984
▁弟子	-985
生活在	-986
的事物	-987
的目标	-988
的能力	-989
没有任何	-990
中心	-991
尼采	-992
性和	-993
房间	-994
的最	-995
社群	-996
!”	-997
us	-998
▁B	-999
▁M	-1000
》。	-1001
体字	-1002
你想	-1003
升起	-1004
地方	-1005
失去	-1006
宇宙	-1007
把你	-1008
措施	-1009
文化	-1010
是不	-1011
汽车	-1012
相当	-1013
确定	-1014
神经	-1015
美国	-1016
阅读	-1017
在那里	-1018
物种的	-1019
的影响	-1020
因为他们	-1021
无意识的	-1022
,”	-1023
or	-1024
▁I	-1025
作者	-1026
冰冷	-1027
准确	-1028
出了	-1029
吉尔	-1030
女性	-1031
害怕	-1032
对话	-1033
形象	-1034
心灵	-1035
摧毁	-1036
有着	-1037
混沌	-1038
粒子	-1039
追求	-1040
逻各	-1041
▁如果	-1042
的数量	-1043
的研究	-1044
自然界	-1045
es	-1046
今天	-1047
兄弟	-1048
大地	-1049
干预	-1050
建议	-1051
德的	-1052
我会	-1053
我将	-1054
教育	-1055
曾经	-1056
格子	-1057
测量	-1058
清晰	-1059
特性	-1060
维持	-1061
这部	-1062
▁因此	-1063
发生的	-1064
取决于	-1065
在这种	-1066
注意到	-1067
爱洛斯	-1068
研究所	-1069
被称为	-1070
▁........	-1071
▁的	-1072
但你	-1073
信仰	-1074
关键	-1075
力比	-1076
命运	-1077
图片	-1078
无所	-1079
有机	-1080
炼金	-1081
细胞	-1082
让你	-1083
诠释	-1084
这段	-1085
在我们	-1086
有很多	-1087
灵魂的	-1088
炼金术	-1089
的一种	-1090
花体字	-1091
身上的	-1092
心理类型	-1093
的一部分	-1094
阿布拉克萨斯	-1095
it	-1096
一点	-1097
一致	-1098
东方	-1099
协会	-1100
含义	-1101
困难	-1102
差异	-1103
承认	-1104
数学	-1105
更好	-1106
有人	-1107
服务	-1108
标度	-1109
父亲	-1110
讲座	-1111
除了	-1112
面对	-1113
预言	-1114
一部分	-1115
就可以	-1116
更大的	-1117
模型中	-1118
特定的	-1119
中写的是	-1120
我们可以	-1121
主导	-1122
你所	-1123
即将	-1124
原理	-1125
合适	-1126
基于	-1127
基因	-1128
好像	-1129
对抗	-1130
应对	-1131
深入	-1132
然后	-1133
的	-1134
,	-1135
▁	-1136
。	-1137
是	-1138
一	-1139
我	-1140
在	-1141
这	-1142
你	-1143
不	-1144
有	-1145
个	-1146
们	-1147
人	-1148
他	-1149
中	-1150
为	-1151
到	-1152
1	-1153
和	-1154
自	-1155
“	-1156
”	-1157
了	-1158
能	-1159
上	-1160
而	-1161
:	-1162
来	-1163
生	-1164
会	-1165
以	-1166
就	-1167
要	-1168
对	-1169
出	-1170
地	-1171
如	-1172
因	-1173
时	-1174
可	-1175
种	-1176
己	-1177
大	-1178
[	-1179
]	-1180
.	-1181
它	-1182
系	-1183
(	-1184
)	-1185
神	-1186
也	-1187
理	-1188
格	-1189
之	-1190
但	-1191
么	-1192
性	-1193
2	-1194
《	-1195
》	-1196
于	-1197
成	-1198
些	-1199
统	-1200
过	-1201
现	-1202
所	-1203
?	-1204
、	-1205
那	-1206
经	-1207
学	-1208
9	-1209
无	-1210
意	-1211
量	-1212
想	-1213
都	-1214
样	-1215
荣	-1216
变	-1217
说	-1218
多	-1219
者	-1220
果	-1221
物	-1222
得	-1223
发	-1224
从	-1225
用	-1226
分	-1227
下	-1228
里	-1229
道	-1230
将	-1231
没	-1232
着	-1233
与	-1234
法	-1235
力	-1236
此	-1237
作	-1238
0	-1239
子	-1240
很	-1241
动	-1242
·	-1243
本	-1244
行	-1245
方	-1246
最	-1247
事	-1248
被	-1249
或	-1250
实	-1251
定	-1252
斯	-1253
然	-1254
其	-1255
体	-1256
年	-1257
并	-1258
间	-1259
3	-1260
化	-1261
开	-1262
把	-1263
界	-1264
度	-1265
进	-1266
5	-1267
书	-1268
4	-1269
相	-1270
什	-1271
解	-1272
同	-1273
看	-1274
象	-1275
只	-1276
心	-1277
已	-1278
知	-1279
世	-1280
特	-1281
后	-1282
起	-1283
存	-1284
使	-1285
更	-1286
论	-1287
应	-1288
身	-1289
通	-1290
图	-1291
第	-1292
部	-1293
思	-1294
像	-1295
6	-1296
面	-1297
当	-1298
回	-1299
形	-1300
类	-1301
数	-1302
去	-1303
式	-1304
;	-1305
7	-1306
前	-1307
全	-1308
利	-1309
情	-1310
8	-1311
内	-1312
何	-1313
模	-1314
原	-1315
常	-1316
路	-1317
命	-1318
结	-1319
识	-1320
新	-1321
非	-1322
e	-1323
正	-1324
活	-1325
基	-1326
接	-1327
够	-1328
受	-1329
入	-1330
认	-1331
重	-1332
点	-1333
长	-1334
态	-1335
次	-1336
页	-1337
信	-1338
灵	-1339
向	-1340
必	-1341
表	-1342
天	-1343
关	-1344
做	-1345
尔	-1346
还	-1347
好	-1348
完	-1349
明	-1350
感	-1351
代	-1352
家	-1353
小	-1354
写	-1355
—	-1356
制	-1357
位	-1358
由	-1359
且	-1360
加	-1361
a	-1362
流	-1363
话	-1364
始	-1365
文	-1366
黑	-1367
程	-1368
教	-1369
合	-1370
外	-1371
西	-1372
死	-1373
型	-1374
精	-1375
又	-1376
比	-1377
需	-1378
则	-1379
i	-1380
让	-1381
沙	-1382
问	-1383
德	-1384
美	-1385
高	-1386
言	-1387
真	-1388
处	-1389
机	-1390
期	-1391
反	-1392
再	-1393
魂	-1394
越	-1395
给	-1396
目	-1397
强	-1398
单	-1399
复	-1400
质	-1401
魔	-1402
主	-1403
吗	-1404
直	-1405
平	-1406
标	-1407
爱	-1408
集	-1409
题	-1410
等	-1411
义	-1412
候	-1413
望	-1414
每	-1415
产	-1416
她	-1417
观	-1418
考	-1419
带	-1420
深	-1421
门	-1422
即	-1423
克	-1424
任	-1425
见	-1426
资	-1427
件	-1428
导	-1429
太	-1430
容	-1431
东	-1432
整	-1433
造	-1434
t	-1435
续	-1436
增	-1437
断	-1438
源	-1439
水	-1440
n	-1441
切	-1442
须	-1443
乐	-1444
征	-1445
两	-1446
光	-1447
r	-1448
转	-1449
视	-1450
难	-1451
拉	-1452
持	-1453
至	-1454
科	-1455
究	-1456
确	-1457
提	-1458
达	-1459
工	-1460
改	-1461
组	-1462
语	-1463
运	-1464
及	-1465
临	-1466
少	-1467
研	-1468
失	-1469
社	-1470
立	-1471
远	-1472
计	-1473
示	-1474
构	-1475
例	-1476
快	-1477
各	-1478
状	-1479
品	-1480
验	-1481
日	-1482
根	-1483
离	-1484
色	-1485
o	-1486
致	-1487
空	-1488
某	-1489
!	-1490
月	-1491
决	-1492
未	-1493
影	-1494
圣	-1495
走	-1496
适	-1497
保	-1498
别	-1499
手	-1500
杂	-1501
卷	-1502
恶	-1503
似	-1504
布	-1505
简	-1506
才	-1507
s	-1508
国	-1509
字	-1510
显	-1511
章	-1512
引	-1513
效	-1514
该	-1515
公	-1516
指	-1517
先	-1518
随	-1519
头	-1520
调	-1521
限	-1522
展	-1523
普	-1524
规	-1525
段	-1526
具	-1527
讲	-1528
注	-1529
却	-1530
找	-1531
觉	-1532
版	-1533
节	-1534
幻	-1535
尼	-1536
值	-1537
稿	-1538
草	-1539
条	-1540
满	-1541
阿	-1542
m	-1543
管	-1544
述	-1545
预	-1546
记	-1547
蛇	-1548
乎	-1549
尽	-1550
况	-1551
建	-1552
超	-1553
创	-1554
亚	-1555
堆	-1556
阳	-1557
息	-1558
织	-1559
维	-1560
二	-1561
督	-1562
终	-1563
仅	-1564
近	-1565
梦	-1566
设	-1567
绝	-1568
名	-1569
几	-1570
I	-1571
极	-1572
另	-1573
声	-1574
律	-1575
率	-1576
线	-1577
放	-1578
术	-1579
响	-1580
火	-1581
包	-1582
告	-1583
许	-1584
称	-1585
否	-1586
修	-1587
价	-1588
u	-1589
速	-1590
崩	-1591
儿	-1592
济	-1593
助	-1594
求	-1595
继	-1596
足	-1597
/	-1598
便	-1599
暗	-1600
鬼	-1601
服	-1602
消	-1603
女	-1604
往	-1605
住	-1606
依	-1607
十	-1608
古	-1609
场	-1610
雪	-1611
充	-1612
层	-1613
花	-1614
永	-1615
金	-1616
围	-1617
白	-1618
释	-1619
震	-1620
罗	-1621
际	-1622
腓	-1623
低	-1624
功	-1625
异	-1626
亡	-1627
呢	-1628
取	-1629
衡	-1630
球	-1631
算	-1632
海	-1633
愿	-1634
译	-1635
历	-1636
周	-1637
秘	-1638
智	-1639
升	-1640
试	-1641
口	-1642
石	-1643
怕	-1644
独	-1645
温	-1646
夜	-1647
连	-1648
交	-1649
拥	-1650
约	-1651
气	-1652
边	-1653
听	-1654
总	-1655
业	-1656
打	-1657
老	-1658
战	-1659
环	-1660
l	-1661
传	-1662
获	-1663
g	-1664
希	-1665
置	-1666
红	-1667
三	-1668
救	-1669
析	-1670
准	-1671
据	-1672
林	-1673
粒	-1674
收	-1675
树	-1676
描	-1677
念	-1678
争	-1679
互	-1680
亲	-1681
§	-1682
病	-1683
孩	-1684
陷	-1685
安	-1686
采	-1687
密	-1688
政	-1689
测	-1690
苦	-1691
令	-1692
察	-1693
属	-1694
治	-1695
星	-1696
策	-1697
d	-1698
莎	-1699
士	-1700
奇	-1701
恐	-1702
画	-1703
f	-1704
善	-1705
波	-1706
细	-1707
山	-1708
渴	-1709
c	-1710
甚	-1711
延	-1712
读	-1713
C	-1714
素	-1715
马	-1716
啊	-1717
清	-1718
较	-1719
联	-1720
音	-1721
录	-1722
哪	-1723
突	-1724
掉	-1725
杀	-1726
止	-1727
除	-1728
步	-1729
洛	-1730
片	-1731
稳	-1732
诸	-1733
含	-1734
留	-1735
群	-1736
沉	-1737
混	-1738
落	-1739
境	-1740
害	-1741
选	-1742
怎	-1743
摆	-1744
易	-1745
血	-1746
评	-1747
区	-1748
曼	-1749
错	-1750
领	-1751
待	-1752
级	-1753
灭	-1754
降	-1755
史	-1756
巨	-1757
弗	-1758
馈	-1759
痛	-1760
站	-1761
冲	-1762
刻	-1763
差	-1764
讨	-1765
弟	-1766
答	-1767
支	-1768
●	-1769
母	-1770
h	-1771
米	-1772
热	-1773
破	-1774
习	-1775
冷	-1776
卡	-1777
眼	-1778
纪	-1779
请	-1780
推	-1781
寻	-1782
费	-1783
避	-1784
吉	-1785
纳	-1786
仍	-1787
备	-1788
脑	-1789
角	-1790
=	-1791
惊	-1792
施	-1793
福	-1794
证	-1795
概	-1796
误	-1797
~	-1798
‘	-1799
房	-1800
静	-1801
’	-1802
初	-1803
室	-1804
折	-1805
洞	-1806
若	-1807
夫	-1808
富	-1809
愚	-1810
迟	-1811
吧	-1812
帮	-1813
诉	-1814
料	-1815
范	-1816
共	-1817
器	-1818
车	-1819
隐	-1820
局	-1821
慢	-1822
故	-1823
跟	-1824
参	-1825
志	-1826
阻	-1827
座	-1828
疑	-1829
脱	-1830
英	-1831
谁	-1832
S	-1833
味	-1834
域	-1835
惧	-1836
控	-1837
承	-1838
狱	-1839
般	-1840
列	-1841
坏	-1842
激	-1843
判	-1844
停	-1845
移	-1846
师	-1847
疯	-1848
演	-1849
供	-1850
张	-1851
案	-1852
藏	-1853
索	-1854
严	-1855
恒	-1856
虑	-1857
阴	-1858
元	-1859
减	-1860
幂	-1861
干	-1862
底	-1863
照	-1864
伯	-1865
务	-1866
四	-1867
权	-1868
孤	-1869
括	-1870
换	-1871
磨	-1872
缺	-1873
伤	-1874
员	-1875
块	-1876
惑	-1877
狂	-1878
弃	-1879
菲	-1880
虽	-1881
项	-1882
土	-1883
弱	-1884
积	-1885
威	-1886
累	-1887
诺	-1888
困	-1889
邪	-1890
A	-1891
投	-1892
择	-1893
笑	-1894
麻	-1895
势	-1896
市	-1897
报	-1898
既	-1899
议	-1900
乱	-1901
假	-1902
曾	-1903
缓	-1904
首	-1905
-	-1906
优	-1907
商	-1908
欲	-1909
轻	-1910
双	-1911
吸	-1912
怀	-1913
河	-1914
司	-1915
奥	-1916
微	-1917
毒	-1918
著	-1919
B	-1920
万	-1921
免	-1922
森	-1923
男	-1924
巴	-1925
序	-1926
戏	-1927
伊	-1928
倒	-1929
拯	-1930
早	-1931
父	-1932
育	-1933
托	-1934
城	-1935
忆	-1936
肯	-1937
脚	-1938
久	-1939
游	-1940
益	-1941
险	-1942
逐	-1943
抄	-1944
装	-1945
遍	-1946
姆	-1947
旦	-1948
毁	-1949
迫	-1950
勒	-1951
慧	-1952
民	-1953
漠	-1954
编	-1955
翻	-1956
苏	-1957
补	-1958
授	-1959
渐	-1960
电	-1961
罪	-1962
背	-1963
趣	-1964
典	-1965
N	-1966
伦	-1967
献	-1968
紧	-1969
库	-1970
曲	-1971
丽	-1972
今	-1973
哈	-1974
拟	-1975
革	-1976
v	-1977
探	-1978
虫	-1979
束	-1980
查	-1981
欢	-1982
王	-1983
配	-1984
兴	-1985
号	-1986
园	-1987
固	-1988
怪	-1989
排	-1990
H	-1991
抗	-1992
萨	-1993
剧	-1994
担	-1995
毫	-1996
瑞	-1997
竞	-1998
逻	-1999
散	-2000
吃	-2001
玛	-2002
遵	-2003
风	-2004
划	-2005
危	-2006
彼	-2007
拜	-2008
础	-2009
网	-2010
遇	-2011
追	-2012
雷	-2013
弄	-2014
替	-2015
皮	-2016
喜	-2017
康	-2018
词	-2019
P	-2020
压	-2021
幸	-2022
架	-2023
篇	-2024
院	-2025
黎	-2026
G	-2027
努	-2028
千	-2029
友	-2030
左	-2031
广	-2032
输	-2033
击	-2034
堡	-2035
循	-2036
护	-2037
端	-2038
负	-2039
句	-2040
b	-2041
予	-2042
借	-2043
客	-2044
责	-2045
陀	-2046
塞	-2047
徒	-2048
技	-2049
晚	-2050
协	-2051
幅	-2052
抛	-2053
撒	-2054
油	-2055
炼	-2056
短	-2057
穿	-2058
顿	-2059
冰	-2060
团	-2061
拒	-2062
灾	-2063
靠	-2064
驱	-2065
p	-2066
坚	-2067
绘	-2068
艺	-2069
闪	-2070
亮	-2071
众	-2072
倾	-2073
印	-2074
滑	-2075
烈	-2076
瓦	-2077
馆	-2078
默	-2079
残	-2080
雄	-2081
骗	-2082
云	-2083
祭	-2084
触	-2085
乏	-2086
熟	-2087
童	-2088
符	-2089
M	-2090
右	-2091
射	-2092
尝	-2093
府	-2094
景	-2095
销	-2096
鲁	-2097
唯	-2098
蠢	-2099
退	-2100
顺	-2101
呈	-2102
坐	-2103
堂	-2104
抓	-2105
牲	-2106
辑	-2107
鸟	-2108
医	-2109
邻	-2110
D	-2111
y	-2112
按	-2113
斗	-2114
迷	-2115
附	-2116
侧	-2117
占	-2118
均	-2119
宗	-2120
恩	-2121
愈	-2122
爆	-2123
翰	-2124
胞	-2125
谈	-2126
贫	-2127
阶	-2128
企	-2129
塔	-2130
材	-2131
药	-2132
莱	-2133
裂	-2134
逃	-2135
半	-2136
吾	-2137
朝	-2138
绕	-2139
居	-2140
悲	-2141
木	-2142
鱼	-2143
丁	-2144
付	-2145
博	-2146
台	-2147
呼	-2148
恰	-2149
牺	-2150
睛	-2151
荡	-2152
谋	-2153
偏	-2154
谢	-2155
货	-2156
频	-2157
弹	-2158
盲	-2159
耀	-2160
顾	-2161
食	-2162
份	-2163
忘	-2164
肉	-2165
墙	-2166
拿	-2167
朋	-2168
核	-2169
歌	-2170
L	-2171
审	-2172
怒	-2173
迹	-2174
J	-2175
帕	-2176
归	-2177
忍	-2178
措	-2179
旧	-2180
欺	-2181
浮	-2182
繁	-2183
纯	-2184
艾	-2185
霍	-2186
O	-2187
健	-2188
尊	-2189
扩	-2190
汽	-2191
聚	-2192
荒	-2193
虚	-2194
赖	-2195
阅	-2196
伟	-2197
办	-2198
抽	-2199
野	-2200
兹	-2201
哲	-2202
尤	-2203
盘	-2204
祷	-2205
舞	-2206
良	-2207
鲜	-2208
举	-2209
刚	-2210
守	-2211
暴	-2212
杆	-2213
烧	-2214
疗	-2215
碎	-2216
聪	-2217
详	-2218
阱	-2219
%	-2220
仰	-2221
吞	-2222
咒	-2223
塌	-2224
染	-2225
胜	-2226
订	-2227
赫	-2228
专	-2229
亦	-2230
允	-2231
顶	-2232
户	-2233
抱	-2234
燃	-2235
牛	-2236
飞	-2237
R	-2238
访	-2239
诱	-2240
贝	-2241
遭	-2242
养	-2243
启	-2244
污	-2245
爬	-2246
矛	-2247
私	-2248
醒	-2249
兄	-2250
兰	-2251
尺	-2252
岸	-2253
杠	-2254
沃	-2255
犯	-2256
略	-2257
登	-2258
笔	-2259
缩	-2260
赋	-2261
赛	-2262
宙	-2263
涌	-2264
诞	-2265
链	-2266
伽	-2267
劳	-2268
摧	-2269
晰	-2270
T	-2271
冒	-2272
刺	-2273
宇	-2274
怜	-2275
船	-2276
谷	-2277
麦	-2278
余	-2279
侵	-2280
沌	-2281
派	-2282
潜	-2283
穷	-2284
耶	-2285
莫	-2286
钱	-2287
龙	-2288
偶	-2289
华	-2290
孕	-2291
宝	-2292
愤	-2293
盖	-2294
耗	-2295
叫	-2296
峰	-2297
捕	-2298
睡	-2299
绿	-2300
诠	-2301
键	-2302
噪	-2303
官	-2304
岩	-2305
崇	-2306
振	-2307
族	-2308
植	-2309
脏	-2310
诚	-2311
轮	-2312
颗	-2313
K	-2314
k	-2315
五	-2316
仿	-2317
伴	-2318
凡	-2319
厌	-2320
楚	-2321
浪	-2322
纸	-2323
隔	-2324
埃	-2325
皇	-2326
碍	-2327
礼	-2328
貌	-2329
贵	-2330
辞	-2331
酒	-2332
队	-2333
x	-2334
享	-2335
厂	-2336
咖	-2337
售	-2338
啡	-2339
坦	-2340
皆	-2341
誊	-2342
诗	-2343
趋	-2344
遗	-2345
酷	-2346
乌	-2347
唤	-2348
职	-2349
败	-2350
额	-2351
七	-2352
励	-2353
哥	-2354
喝	-2355
批	-2356
枝	-2357
百	-2358
谬	-2359
跳	-2360
透	-2361
遥	-2362
恢	-2363
板	-2364
盾	-2365
碰	-2366
营	-2367
跨	-2368
青	-2369
旁	-2370
暖	-2371
送	-2372
黄	-2373
忽	-2374
敦	-2375
杰	-2376
蛋	-2377
辨	-2378
防	-2379
伍	-2380
南	-2381
奖	-2382
套	-2383
奴	-2384
庭	-2385
悬	-2386
抑	-2387
握	-2388
映	-2389
桌	-2390
梅	-2391
财	-2392
×	-2393
丰	-2394
凝	-2395
匹	-2396
妙	-2397
漫	-2398
竭	-2399
脉	-2400
芒	-2401
莉	-2402
迪	-2403
钟	-2404
银	-2405
哀	-2406
喻	-2407
屋	-2408
废	-2409
衰	-2410
赎	-2411
践	-2412
躺	-2413
障	-2414
E	-2415
储	-2416
彩	-2417
懂	-2418
扰	-2419
晶	-2420
枯	-2421
泥	-2422
犹	-2423
耐	-2424
耳	-2425
距	-2426
农	-2427
彷	-2428
徨	-2429
挂	-2430
桥	-2431
烦	-2432
绪	-2433
W	-2434
丧	-2435
军	-2436
撞	-2437
灰	-2438
融	-2439
途	-2440
逝	-2441
丹	-2442
冠	-2443
夺	-2444
悉	-2445
执	-2446
摩	-2447
敏	-2448
武	-2449
泛	-2450
浴	-2451
监	-2452
脆	-2453
蒂	-2454
藻	-2455
贪	-2456
郁	-2457
镜	-2458
Z	-2459
休	-2460
俗	-2461
北	-2462
壤	-2463
抵	-2464
敌	-2465
松	-2466
沿	-2467
稍	-2468
簧	-2469
糊	-2470
糟	-2471
羊	-2472
芬	-2473
雨	-2474
卖	-2475
嘲	-2476
彻	-2477
柏	-2478
洁	-2479
渺	-2480
滞	-2481
玩	-2482
肃	-2483
股	-2484
蒙	-2485
蔑	-2486
谓	-2487
迈	-2488
返	-2489
F	-2490
买	-2491
伪	-2492
佛	-2493
俄	-2494
叶	-2495
壳	-2496
宣	-2497
忠	-2498
恨	-2499
摇	-2500
液	-2501
症	-2502
祖	-2503
竟	-2504
茨	-2505
铁	-2506
阈	-2507
陌	-2508
鼓	-2509
亿	-2510
介	-2511
俱	-2512
您	-2513
悯	-2514
斜	-2515
朵	-2516
款	-2517
润	-2518
疾	-2519
硬	-2520
绩	-2521
缸	-2522
蓝	-2523
蛙	-2524
诅	-2525
迅	-2526
刷	-2527
损	-2528
朗	-2529
末	-2530
泽	-2531
禁	-2532
绑	-2533
跃	-2534
醉	-2535
w	-2536
估	-2537
剑	-2538
卑	-2539
吼	-2540
圆	-2541
墨	-2542
夏	-2543
封	-2544
急	-2545
挥	-2546
掌	-2547
播	-2548
旅	-2549
昆	-2550
杉	-2551
歧	-2552
洗	-2553
焰	-2554
税	-2555
缘	-2556
膀	-2557
劣	-2558
宫	-2559
屈	-2560
档	-2561
洋	-2562
炉	-2563
牙	-2564
瘾	-2565
秩	-2566
谜	-2567
赢	-2568
跑	-2569
载	-2570
阔	-2571
隶	-2572
九	-2573
仪	-2574
六	-2575
勇	-2576
午	-2577
坡	-2578
塑	-2579
惯	-2580
撕	-2581
旋	-2582
检	-2583
楼	-2584
汉	-2585
牧	-2586
粗	-2587
练	-2588
络	-2589
虔	-2590
警	-2591
购	-2592
辉	-2593
钉	-2594
饰	-2595
V	-2596
乃	-2597
仆	-2598
倍	-2599
傻	-2600
叹	-2601
圈	-2602
埋	-2603
墓	-2604
娜	-2605
宽	-2606
弥	-2607
昼	-2608
泉	-2609
洲	-2610
甲	-2611
盛	-2612
码	-2613
纽	-2614
艰	-2615
蠕	-2616
衣	-2617
账	-2618
辩	-2619
针	-2620
陈	-2621
剩	-2622
哭	-2623
杯	-2624
棵	-2625
狗	-2626
玻	-2627
腊	-2628
舍	-2629
詹	-2630
谎	-2631
锁	-2632
闻	-2633
阐	-2634
露	-2635
丑	-2636
傲	-2637
厘	-2638
床	-2639
招	-2640
挑	-2641
敬	-2642
欧	-2643
毕	-2644
灯	-2645
烂	-2646
焉	-2647
猴	-2648
缠	-2649
腥	-2650
荷	-2651
赞	-2652
踪	-2653
雅	-2654
z	-2655
伸	-2656
卫	-2657
壮	-2658
婪	-2659
憎	-2660
揭	-2661
春	-2662
潮	-2663
狮	-2664
蛾	-2665
谐	-2666
闭	-2667
q	-2668
伏	-2669
偷	-2670
偿	-2671
八	-2672
净	-2673
奉	-2674
宁	-2675
幼	-2676
廉	-2677
挪	-2678
摸	-2679
昂	-2680
校	-2681
溃	-2682
牢	-2683
颂	-2684
骨	-2685
仁	-2686
促	-2687
厨	-2688
岁	-2689
巧	-2690
怨	-2691
操	-2692
框	-2693
汶	-2694
浅	-2695
滚	-2696
瘫	-2697
粹	-2698
罕	-2699
脸	-2700
谅	-2701
陆	-2702
{	-2703
}	-2704
丛	-2705
凭	-2706
填	-2707
奶	-2708
孔	-2709
尖	-2710
巫	-2711
庙	-2712
怖	-2713
患	-2714
慰	-2715
猎	-2716
瓜	-2717
痪	-2718
祝	-2719
翅	-2720
蚀	-2721
踏	-2722
违	-2723
颜	-2724
+	-2725
仔	-2726
扮	-2727
抖	-2728
曰	-2729
氧	-2730
涨	-2731
猜	-2732
田	-2733
盒	-2734
窗	-2735
苹	-2736
街	-2737
诡	-2738
谟	-2739
软	-2740
递	-2741
陡	-2742
°	-2743
倦	-2744
叙	-2745
吹	-2746
季	-2747
径	-2748
扭	-2749
挤	-2750
殖	-2751
涉	-2752
湾	-2753
疲	-2754
稚	-2755
笼	-2756
箭	-2757
肥	-2758
讶	-2759
课	-2760
锥	-2761
镇	-2762
阵	-2763
餐	-2764
τ	-2765
丝	-2766
佳	-2767
兵	-2768
厄	-2769
厚	-2770
坟	-2771
媒	-2772
席	-2773
庸	-2774
役	-2775
悔	-2776
戴	-2777
掩	-2778
朽	-2779
汝	-2780
渔	-2781
滋	-2782
焦	-2783
燥	-2784
珍	-2785
祈	-2786
稣	-2787
缚	-2788
罩	-2789
腐	-2790
衍	-2791
覆	-2792
询	-2793
贴	-2794
迎	-2795
陶	-2796
隆	-2797
驾	-2798
乔	-2799
噬	-2800
妇	-2801
妹	-2802
寄	-2803
寒	-2804
峡	-2805
戈	-2806
浊	-2807
渊	-2808
熊	-2809
盯	-2810
矿	-2811
票	-2812
筑	-2813
羞	-2814
耻	-2815
诫	-2816
贡	-2817
躯	-2818
零	-2819
饮	-2820
刀	-2821
夸	-2822
婚	-2823
州	-2824
幽	-2825
截	-2826
捞	-2827
携	-2828
暂	-2829
棱	-2830
欣	-2831
殊	-2832
洪	-2833
渡	-2834
湖	-2835
滥	-2836
烟	-2837
狭	-2838
稀	-2839
糕	-2840
聆	-2841
蛮	-2842
诲	-2843
飘	-2844
香	-2845
丢	-2846
串	-2847
伐	-2848
剂	-2849
削	-2850
副	-2851
割	-2852
厅	-2853
培	-2854
央	-2855
妻	-2856
岛	-2857
忙	-2858
惨	-2859
扔	-2860
扛	-2861
拖	-2862
挡	-2863
捆	-2864
攻	-2865
柱	-2866
梯	-2867
歇	-2868
汇	-2869
汤	-2870
灌	-2871
狄	-2872
眠	-2873
瞬	-2874
纵	-2875
罚	-2876
耦	-2877
胁	-2878
萎	-2879
谨	-2880
跪	-2881
邀	-2882
陋	-2883
X	-2884
吻	-2885
喊	-2886
坠	-2887
堕	-2888
寸	-2889
尘	-2890
幕	-2891
庄	-2892
挖	-2893
撑	-2894
村	-2895
畏	-2896
砍	-2897
签	-2898
胡	-2899
芝	-2900
芽	-2901
苍	-2902
跛	-2903
雾	-2904
韦	-2905
骑	-2906
齐	-2907
井	-2908
堪	-2909
尾	-2910
御	-2911
悟	-2912
戒	-2913
插	-2914
沟	-2915
浓	-2916
滴	-2917
炸	-2918
烁	-2919
瑰	-2920
甜	-2921
瘠	-2922
省	-2923
磁	-2924
罐	-2925
肝	-2926
臭	-2927
舌	-2928
谦	-2929
谱	-2930
赶	-2931
遮	-2932
钥	-2933
铺	-2934
颤	-2935
饱	-2936
饿	-2937
鹅	-2938
Y	-2939
乘	-2940
凉	-2941
删	-2942
勃	-2943
匙	-2944
喷	-2945
圾	-2946
垃	-2947
壁	-2948
妄	-2949
娃	-2950
寿	-2951
尸	-2952
峭	-2953
币	-2954
惩	-2955
扎	-2956
扬	-2957
毛	-2958
津	-2959
涅	-2960
溪	-2961
盔	-2962
跌	-2963
辆	-2964
僵	-2965
凯	-2966
召	-2967
呆	-2968
奋	-2969
奏	-2970
娘	-2971
嫁	-2972
嵌	-2973
庞	-2974
弯	-2975
拆	-2976
拙	-2977
斥	-2978
梁	-2979
棋	-2980
殿	-2981
玫	-2982
珠	-2983
疏	-2984
窄	-2985
纷	-2986
绍	-2987
肤	-2988
茅	-2989
训	-2990
赐	-2991
赚	-2992
蹈	-2993
饥	-2994
匿	-2995
吵	-2996
委	-2997
宏	-2998
忧	-2999
慈	-3000
拔	-3001
晨	-3002
李	-3003
泣	-3004
洽	-3005
浑	-3006
浸	-3007
漂	-3008
烬	-3009
狡	-3010
猛	-3011
畅	-3012
畜	-3013
疫	-3014
籍	-3015
肩	-3016
肮	-3017
蓄	-3018
薄	-3019
藉	-3020
裴	-3021
豫	-3022
贯	-3023
贷	-3024
轴	-3025
雕	-3026
驭	-3027
乞	-3028
乡	-3029
兽	-3030
冯	-3031
冻	-3032
叛	-3033
吟	-3034
坛	-3035
堵	-3036
妓	-3037
孙	-3038
寂	-3039
庇	-3040
忏	-3041
悖	-3042
惠	-3043
慎	-3044
擦	-3045
敢	-3046
柔	-3047
汁	-3048
沾	-3049
淘	-3050
添	-3051
渗	-3052
湿	-3053
滩	-3054
熔	-3055
班	-3056
瑟	-3057
绳	-3058
膏	-3059
萄	-3060
葡	-3061
览	-3062
诘	-3063
豪	-3064
赤	-3065
逆	-3066
逊	-3067
邦	-3068
鄙	-3069
鉴	-3070
骰	-3071
鸡	-3072
丘	-3073
亵	-3074
唱	-3075
宿	-3076
尚	-3077
慕	-3078
拍	-3079
搞	-3080
朱	-3081
横	-3082
氛	-3083
泰	-3084
淡	-3085
渎	-3086
漏	-3087
澈	-3088
猾	-3089
璃	-3090
穴	-3091
糙	-3092
纠	-3093
缝	-3094
肢	-3095
藤	-3096
袍	-3097
裹	-3098
誉	-3099
郎	-3100
酿	-3101
顽	-3102
骄	-3103
骤	-3104
–	-3105
剥	-3106
匈	-3107
吓	-3108
君	-3109
呻	-3110
孵	-3111
庆	-3112
恋	-3113
扑	-3114
抉	-3115
拓	-3116
拼	-3117
搭	-3118
摄	-3119
撬	-3120
旷	-3121
昏	-3122
昨	-3123
桔	-3124
汰	-3125
泪	-3126
洒	-3127
牵	-3128
珊	-3129
菌	-3130
蜥	-3131
蜴	-3132
讽	-3133
贱	-3134
赠	-3135
迭	-3136
钢	-3137
驯	-3138
龄	-3139
U	-3140
α	-3141
佑	-3142
佩	-3143
侍	-3144
侏	-3145
儒	-3146
兆	-3147
册	-3148
冬	-3149
函	-3150
匠	-3151
叔	-3152
叠	-3153
哦	-3154
坝	-3155
婴	-3156
尬	-3157
尴	-3158
帝	-3159
店	-3160
恍	-3161
悄	-3162
悦	-3163
愉	-3164
懦	-3165
抹	-3166
搅	-3167
杜	-3168
枢	-3169
毯	-3170
泊	-3171
申	-3172
痕	-3173
盆	-3174
砸	-3175
祸	-3176
秋	-3177
窒	-3178
粉	-3179
粘	-3180
芳	-3181
苗	-3182
袭	-3183
谛	-3184
踩	-3185
辈	-3186
迁	-3187
迦	-3188
钓	-3189
陨	-3190
鸽	-3191
～	-3192
叉	-3193
吊	-3194
哉	-3195
嘴	-3196
嘶	-3197
囚	-3198
垂	-3199
垄	-3200
奔	-3201
奢	-3202
廓	-3203
弈	-3204
恕	-3205
惚	-3206
抚	-3207
掷	-3208
攀	-3209
斑	-3210
旱	-3211
晃	-3212
栖	-3213
械	-3214
棒	-3215
泻	-3216
淹	-3217
炽	-3218
熄	-3219
玉	-3220
珀	-3221
瓶	-3222
番	-3223
疚	-3224
痴	-3225
睹	-3226
睿	-3227
砖	-3228
穆	-3229
竖	-3230
综	-3231
翼	-3232
腾	-3233
臂	-3234
舒	-3235
艘	-3236
葬	-3237
衷	-3238
裸	-3239
贾	-3240
钩	-3241
铃	-3242
锋	-3243
锐	-3244
闹	-3245
雇	-3246
鞭	-3247
驶	-3248
亨	-3249
京	-3250
兑	-3251
厉	-3252
咆	-3253
哮	-3254
噢	-3255
嚎	-3256
圭	-3257
夹	-3258
妈	-3259
婆	-3260
宰	-3261
彰	-3262
恼	-3263
惜	-3264
懒	-3265
扼	-3266
抢	-3267
捉	-3268
捷	-3269
援	-3270
摘	-3271
擅	-3272
斧	-3273
柄	-3274
梨	-3275
梵	-3276
棘	-3277
殉	-3278
沮	-3279
泡	-3280
渣	-3281
溢	-3282
灿	-3283
煌	-3284
矮	-3285
硕	-3286
禀	-3287
箱	-3288
翠	-3289
耕	-3290
胆	-3291
航	-3292
蔽	-3293
虎	-3294
谴	-3295
贸	-3296
辐	-3297
辱	-3298
逼	-3299
铜	-3300
锚	-3301
锤	-3302
锻	-3303
饭	-3304
齿	-3305
伙	-3306
佐	-3307
侃	-3308
偈	-3309
党	-3310
兼	-3311
冕	-3312
卓	-3313
吐	-3314
吠	-3315
呕	-3316
嗓	-3317
姻	-3318
姿	-3319
嫉	-3320
宜	-3321
屏	-3322
帆	-3323
帘	-3324
惟	-3325
扫	-3326
扶	-3327
披	-3328
抬	-3329
捐	-3330
掘	-3331
撤	-3332
敲	-3333
斐	-3334
昧	-3335
枪	-3336
汀	-3337
沼	-3338
浦	-3339
浩	-3340
淆	-3341
淋	-3342
潘	-3343
灼	-3344
皱	-3345
睁	-3346
砌	-3347
糖	-3348
纱	-3349
绵	-3350
胸	-3351
脂	-3352
腿	-3353
蒸	-3354
蔡	-3355
袋	-3356
裕	-3357
诊	-3358
贩	-3359
贮	-3360
赏	-3361
辅	-3362
迄	-3363
遂	-3364
钝	-3365
钻	-3366
铅	-3367
闷	-3368
饶	-3369
驳	-3370
鲍	-3371
鼠	-3372
Σ	-3373
λ	-3374
μ	-3375
仓	-3376
倡	-3377
兔	-3378
兮	-3379
冈	-3380
凶	-3381
凸	-3382
劝	-3383
劫	-3384
勖	-3385
咬	-3386
嗜	-3387
坍	-3388
奈	-3389
奎	-3390
妨	-3391
孟	-3392
宴	-3393
宾	-3394
寓	-3395
岂	-3396
怯	-3397
悚	-3398
悼	-3399
扇	-3400
捧	-3401
撰	-3402
擎	-3403
晕	-3404
晦	-3405
榜	-3406
江	-3407
泄	-3408
浆	-3409
淫	-3410
渠	-3411
潭	-3412
濒	-3413
炜	-3414
炮	-3415
熙	-3416
獭	-3417
玷	-3418
瑜	-3419
疼	-3420
矗	-3421
碗	-3422
筹	-3423
篮	-3424
粮	-3425
纹	-3426
绽	-3427
羽	-3428
聋	-3429
肖	-3430
肺	-3431
膝	-3432
芭	-3433
苛	-3434
茂	-3435
荫	-3436
莽	-3437
蔓	-3438
蜂	-3439
蜒	-3440
蜜	-3441
蜿	-3442
蝶	-3443
裁	-3444
诈	-3445
贤	-3446
躲	-3447
轨	-3448
辛	-3449
逾	-3450
颅	-3451
髓	-3452
魄	-3453
魅	-3454
鼎	-3455
鼻	-3456
‰	-3457
仇	-3458
侈	-3459
催	-3460
冉	-3461
冗	-3462
冥	-3463
凄	-3464
刑	-3465
剪	-3466
劲	-3467
咎	-3468
哑	-3469
唇	-3470
唐	-3471
喂	-3472
契	-3473
奠	-3474
妒	-3475
孜	-3476
屠	-3477
履	-3478
崭	-3479
巢	-3480
巩	-3481
廷	-3482
弓	-3483
慌	-3484
戮	-3485
挠	-3486
掠	-3487
搏	-3488
摔	-3489
朴	-3490
桑	-3491
棉	-3492
棕	-3493
欠	-3494
浇	-3495
涂	-3496
涛	-3497
涩	-3498
淀	-3499
溯	-3500
瀚	-3501
炙	-3502
煮	-3503
熬	-3504
牌	-3505
狠	-3506
玄	-3507
琳	-3508
磅	-3509
秒	-3510
租	-3511
秽	-3512
窟	-3513
窿	-3514
笨	-3515
粪	-3516
缪	-3517
署	-3518
耘	-3519
聘	-3520
腰	-3521
茫	-3522
蕴	-3523
蝴	-3524
贼	-3525
轰	-3526
邃	-3527
酬	-3528
酸	-3529
铭	-3530
锅	-3531
锡	-3532
颇	-3533
颠	-3534
驴	-3535
驻	-3536
骚	-3537
魏	-3538
鸿	-3539
&	-3540
\	-3541
δ	-3542
丈	-3543
乖	-3544
仑	-3545
仙	-3546
俘	-3547
俯	-3548
僭	-3549
凌	-3550
刃	-3551
刹	-3552
剔	-3553
勉	-3554
匪	-3555
卜	-3556
卢	-3557
卸	-3558
喘	-3559
嘎	-3560
坎	-3561
妖	-3562
姐	-3563
姬	-3564
宠	-3565
宪	-3566
崎	-3567
忌	-3568
慨	-3569
憾	-3570
懈	-3571
扣	-3572
拐	-3573
拣	-3574
拾	-3575
捏	-3576
揣	-3577
摒	-3578
斩	-3579
旺	-3580
昭	-3581
晓	-3582
晴	-3583
朦	-3584
札	-3585
枷	-3586
柜	-3587
桶	-3588
橡	-3589
毋	-3590
氏	-3591
汗	-3592
池	-3593
汹	-3594
沸	-3595
泼	-3596
涡	-3597
漩	-3598
烙	-3599
爵	-3600
犬	-3601
狼	-3602
琉	-3603
琴	-3604
琼	-3605
甘	-3606
痹	-3607
瘟	-3608
盏	-3609
瞒	-3610
矢	-3611
矫	-3612
碧	-3613
碳	-3614
稼	-3615
缇	-3616
缴	-3617
羔	-3618
羡	-3619
翁	-3620
翔	-3621
肆	-3622
胖	-3623
胧	-3624
胶	-3625
脊	-3626
腹	-3627
臣	-3628
艳	-3629
苟	-3630
茧	-3631
茶	-3632
菜	-3633
薯	-3634
蜍	-3635
蝾	-3636
螈	-3637
蟾	-3638
袖	-3639
誓	-3640
诀	-3641
诧	-3642
趴	-3643
踱	-3644
躁	-3645
辜	-3646
迥	-3647
遣	-3648
钵	-3649
闲	-3650
阀	-3651
隙	-3652
骇	-3653
±	-3654
Λ	-3655
γ	-3656
→	-3657
丐	-3658
乳	-3659
亟	-3660
刊	-3661
勤	-3662
匆	-3663
卧	-3664
卵	-3665
吁	-3666
咨	-3667
咯	-3668
咳	-3669
哎	-3670
喧	-3671
嗡	-3672
囊	-3673
垒	-3674
垫	-3675
墟	-3676
夷	-3677
妥	-3678
娱	-3679
宅	-3680
岗	-3681
崔	-3682
巅	-3683
廊	-3684
弊	-3685
弋	-3686
徽	-3687
恭	-3688
惰	-3689
愁	-3690
扒	-3691
扯	-3692
拇	-3693
拱	-3694
挣	-3695
挫	-3696
挺	-3697
搁	-3698
搬	-3699
摈	-3700
撼	-3701
攘	-3702
旬	-3703
昌	-3704
枉	-3705
柯	-3706
栩	-3707
殆	-3708
沛	-3709
沫	-3710
泞	-3711
漆	-3712
澄	-3713
炎	-3714
炭	-3715
烛	-3716
烫	-3717
焕	-3718
煤	-3719
珐	-3720
琅	-3721
琐	-3722
甫	-3723
畔	-3724
畴	-3725
癌	-3726
皿	-3727
盈	-3728
盎	-3729
盗	-3730
盟	-3731
盼	-3732
瞎	-3733
碑	-3734
磷	-3735
祥	-3736
秀	-3737
稽	-3738
筒	-3739
筛	-3740
粼	-3741
绎	-3742
绒	-3743
绞	-3744
胎	-3745
茎	-3746
茵	-3747
荆	-3748
荐	-3749
萝	-3750
葛	-3751
董	-3752
藐	-3753
蚁	-3754
蛛	-3755
蝇	-3756
螺	-3757
衔	-3758
裙	-3759
谕	-3760
赌	-3761
赝	-3762
赦	-3763
踢	-3764
踹	-3765
辟	-3766
迸	-3767
逅	-3768
遁	-3769
邂	-3770
邮	-3771
邱	-3772
酵	-3773
鎏	-3774
钮	-3775
钳	-3776
铸	-3777
锢	-3778
闯	-3779
闸	-3780
霜	-3781
颈	-3782
颖	-3783
饲	-3784
驰	-3785
鸦	-3786
$	-3787
Φ	-3788
乍	-3789
亏	-3790
亩	-3791
仲	-3792
俩	-3793
债	-3794
偎	-3795
凋	-3796
凑	-3797
凿	-3798
剖	-3799
勘	-3800
匣	-3801
吕	-3802
吝	-3803
吴	-3804
呓	-3805
呵	-3806
咫	-3807
唾	-3808
嗽	-3809
嘈	-3810
噩	-3811
嚣	-3812
堤	-3813
塘	-3814
壶	-3815
夕	-3816
妮	-3817
姑	-3818
媚	-3819
嫩	-3820
嬉	-3821
岖	-3822
巡	-3823
巾	-3824
弦	-3825
徙	-3826
恳	-3827
悴	-3828
惕	-3829
惫	-3830
慑	-3831
憔	-3832
懵	-3833
戳	-3834
扁	-3835
抒	-3836
押	-3837
拦	-3838
拳	-3839
挽	-3840
撇	-3841
敛	-3842
敞	-3843
暇	-3844
杖	-3845
枚	-3846
柴	-3847
栋	-3848
栏	-3849
栗	-3850
桎	-3851
桦	-3852
梏	-3853
梭	-3854
椅	-3855
歉	-3856
歪	-3857
洼	-3858
涣	-3859
涵	-3860
涸	-3861
淌	-3862
港	-3863
湍	-3864
溉	-3865
滓	-3866
滕	-3867
滤	-3868
澡	-3869
炫	-3870
煽	-3871
爪	-3872
狐	-3873
狸	-3874
琪	-3875
瑕	-3876
甩	-3877
甸	-3878
畸	-3879
痊	-3880
瘦	-3881
眉	-3882
祂	-3883
祉	-3884
穹	-3885
窃	-3886
窝	-3887
窥	-3888
竿	-3889
笛	-3890
筋	-3891
篷	-3892
绅	-3893
绚	-3894
缰	-3895
罢	-3896
羚	-3897
聊	-3898
肋	-3899
肌	-3900
肛	-3901
肠	-3902
腔	-3903
膨	-3904
舆	-3905
芙	-3906
芜	-3907
芥	-3908
芦	-3909
萌	-3910
蒲	-3911
蕾	-3912
虐	-3913
蚂	-3914
蚤	-3915
蜘	-3916
蜷	-3917
衅	-3918
裔	-3919
譬	-3920
讣	-3921
讯	-3922
诋	-3923
诵	-3924
贬	-3925
贿	-3926
跋	-3927
跚	-3928
蹒	-3929
轶	-3930
邓	-3931
钦	-3932
锯	-3933
镶	-3934
闼	-3935
隧	-3936
雏	-3937
靴	-3938
鞋	-3939
颁	-3940
骸	-3941
鹿	-3942
>	-3943
@	-3944
j	-3945
ü	-3946
Γ	-3947
Ο	-3948
Ω	-3949
ρ	-3950
〈	-3951
〉	-3952
亘	-3953
亢	-3954
亥	-3955
仗	-3956
佃	-3957
佣	-3958
俊	-3959
傍	-3960
僚	-3961
兜	-3962
凹	-3963
券	-3964
勾	-3965
匀	-3966
匍	-3967
匐	-3968
厢	-3969
呐	-3970
咝	-3971
咸	-3972
哧	-3973
唆	-3974
唉	-3975
啤	-3976
啬	-3977
喋	-3978
嗣	-3979
噶	-3980
嚼	-3981
坑	-3982
垩	-3983
奕	-3984
奸	-3985
姓	-3986
娩	-3987
娶	-3988
媾	-3989
嫌	-3990
孽	-3991
宋	-3992
宦	-3993
寡	-3994
尿	-3995
屎	-3996
屡	-3997
屿	-3998
岱	-3999
崖	-4000
川	-4001
徊	-4002
徐	-4003
徘	-4004
忒	-4005
忡	-4006
忿	-4007
怠	-4008
怦	-4009
惶	-4010
惹	-4011
慵	-4012
戛	-4013
戾	-4014
扈	-4015
扉	-4016
抨	-4017
拄	-4018
拧	-4019
挚	-4020
挛	-4021
捍	-4022
捡	-4023
掀	-4024
搐	-4025
搜	-4026
摊	-4027
撮	-4028
攫	-4029
斤	-4030
旨	-4031
晒	-4032
曙	-4033
曳	-4034
杨	-4035
枣	-4036
株	-4037
桂	-4038
桩	-4039
梓	-4040
榈	-4041
榨	-4042
槛	-4043
槽	-4044
毗	-4045
汪	-4046
汲	-4047
泵	-4048
洄	-4049
涝	-4050
淖	-4051
淙	-4052
湎	-4053
溜	-4054
溺	-4055
瀑	-4056
炬	-4057
焊	-4058
焚	-4059
煎	-4060
燕	-4061
爽	-4062
犁	-4063
猩	-4064
猪	-4065
琢	-4066
瑗	-4067
瑚	-4068
瓴	-4069
瓷	-4070
甄	-4071
疵	-4072
痉	-4073
瘤	-4074
瘸	-4075
眨	-4076
眩	-4077
眷	-4078
睫	-4079
瞄	-4080
瞥	-4081
瞧	-4082
瞪	-4083
瞻	-4084
矣	-4085
矶	-4086
砂	-4087
砾	-4088
碌	-4089
碾	-4090
祀	-4091
祟	-4092
禄	-4093
秃	-4094
稠	-4095
窍	-4096
窖	-4097
竹	-4098
簇	-4099
粕	-4100
纂	-4101
纤	-4102
纲	-4103
绣	-4104
缄	-4105
缅	-4106
缔	-4107
缕	-4108
缤	-4109
缭	-4110
翩	-4111
耸	-4112
耽	-4113
肇	-4114
肚	-4115
肪	-4116
胀	-4117
胃	-4118
胳	-4119
脖	-4120
膊	-4121
臆	-4122
舔	-4123
舟	-4124
舵	-4125
芸	-4126
苇	-4127
茬	-4128
蓬	-4129
蔚	-4130
蔬	-4131
蚊	-4132
蛰	-4133
螅	-4134
衫	-4135
袤	-4136
褛	-4137
褪	-4138
褴	-4139
褶	-4140
诽	-4141
谣	-4142
谤	-4143
豁	-4144
豹	-4145
豺	-4146
貂	-4147
贞	-4148
赡	-4149
跄	-4150
跤	-4151
踉	-4152
踽	-4153
蹄	-4154
蹦	-4155
轧	-4156
轭	-4157
辗	-4158
逛	-4159
逸	-4160
遏	-4161
遨	-4162
郊	-4163
酊	-4164
酩	-4165
酪	-4166
酶	-4167
铐	-4168
铠	-4169
锈	-4170
锹	-4171
闍	-4172
隘	-4173
雀	-4174
雌	-4175
霆	-4176
霉	-4177
霸	-4178
靓	-4179
韧	-4180
顷	-4181
飙	-4182
馔	-4183
驮	-4184
驼	-4185
鷇	-4186
鸣	-4187
鸥	-4188
鸩	-4189
鹉	-4190
鹦	-4191
黏	-4192
黜	-4193
"	-4194
Q	-4195
Η	-4196
Ι	-4197
Μ	-4198
Ν	-4199
η	-4200
ι	-4201
π	-4202
∑	-4203
⊙	-4204
丸	-4205
亭	-4206
伫	-4207
伺	-4208
