<unk>	0
<pad>	0
<bos>	0
<eos>	0
<mask>	0
<ghost>	0
sp	-0
em	-1
emsp	-2
;&	-3
▁【	-4
桔梗	-5
存在	-6
▁|	-7
丹陀	-8
巴尔	-9
时空	-10
巴尔丹陀	-11
▁&	-12
▁神	-13
巫女	-14
姬神	-15
▁[	-16
▁阿	-17
思维	-18
意志	-19
祂仆	-20
▁桔梗	-21
蕾祂仆	-22
吾神	-23
姆特	-24
之神	-25
▁若	-26
纱织	-27
这是	-28
克蕾祂仆	-29
仁神	-30
关系	-31
天界	-32
时代	-33
--	-34
▁巴尔丹陀	-35
自然	-36
▁故	-37
▁第	-38
不能	-39
德鹭	-40
比亚	-41
的神	-42
达姆	-43
德鹭达姆	-44
▁那	-45
如此	-46
道义	-47
▁]	-48
纪元	-49
▁奥	-50
不可	-51
异星	-52
戈拉	-53
琳斯	-54
罕钵	-55
▁(	-56
世界	-57
先知	-58
利亚	-59
大名	-60
比尔	-61
比亚纶	-62
米利亚	-63
人类	-64
神官	-65
▁吾	-66
乌拉	-67
告诫	-68
实在	-69
智慧	-70
神的	-71
存在的	-72
丹驮	-73
吡蒂	-74
职务	-75
辨识	-76
吡蒂丹驮	-77
▁克蕾祂仆	-78
▁一	-79
上帝	-80
使得	-81
德莎	-82
知识	-83
魔法	-84
喜比尔	-85
德莎曼	-86
丹姆	-87
因此	-88
性质	-89
章节	-90
陀沃	-91
丹姆尔	-92
乌拉德	-93
罕钵拉	-94
阿姆特	-95
▁阿姆特	-96
▁其	-97
三愈	-98
人间	-99
你们	-100
吾等	-101
拟态	-102
邸爱	-103
三愈罪	-104
琳斯达	-105
邸爱琳斯达	-106
▁↓	-107
一切	-108
就是	-109
摩诃	-110
是神	-111
母亲	-112
灵魂	-113
众神	-114
坦言	-115
拉玛	-116
祭祀	-117
▁姬神	-118
▁德鹭达姆	-119
▁在	-120
于此	-121
偶遇	-122
合法	-123
奥利	-124
女子	-125
意识	-126
政治	-127
整体	-128
本质	-129
祂即	-130
神姬	-131
神道	-132
这人	-133
都灵	-134
▁仁神	-135
▁吾神	-136
戈拉姆	-137
旧神官	-138
▁米利亚	-139
之时	-140
事业	-141
人神	-142
因果	-143
应允	-144
汝等	-145
滑跪	-146
父亲	-147
真实	-148
神性	-149
神社	-150
芙埵	-151
贵族	-152
逻辑	-153
▁上帝	-154
▁巫女	-155
▁神姬	-156
萨芙埵	-157
▁是	-158
不是	-159
不知	-160
不见	-161
何者	-162
原则	-163
叔友	-164
哈鹭	-165
妥协	-166
尺度	-167
正法	-168
现象	-169
男子	-170
神人	-171
神胜	-172
达布	-173
哈鹭芙	-174
纪元桔梗	-175
▁邸爱琳斯达	-176
▁以	-177
▁诸	-178
世间	-179
使其	-180
信任	-181
信息	-182
喀德	-183
喃特	-184
政府	-185
海盗	-186
认知	-187
路径	-188
非是	-189
▁一时	-190
▁这是	-191
之桔梗	-192
桔梗之	-193
比拉玛	-194
达布斯	-195
阿陀沃	-196
▁若这人	-197
▁吡蒂丹驮	-198
▁奥德莎曼	-199
▁仁	-200
▁太	-201
▁如	-202
▁此	-203
一个	-204
中的	-205
丽斯	-206
人之	-207
古论	-208
同僚	-209
哆拉	-210
回归	-211
大雄	-212
子嗣	-213
孩子	-214
家族	-215
就要	-216
岂能	-217
干涉	-218
德之	-219
战争	-220
教堂	-221
概念	-222
正义	-223
汝之	-224
法案	-225
线性	-226
织质	-227
范畴	-228
虚线	-229
通约	-230
非神	-231
古论巴	-232
喀德玛	-233
奥利巴	-234
意志的	-235
菲丽斯	-236
▁三	-237
▁再	-238
▁这	-239
人的	-240
仸朗	-241
会议	-242
便是	-243
具备	-244
决策	-245
古澜	-246
召者	-247
国民	-248
夜姬	-249
女性	-250
定义	-251
对方	-252
封印	-253
恩典	-254
拉罗	-255
教廷	-256
无有	-257
未有	-258
比修	-259
没有	-260
神体	-261
秩序	-262
精神	-263
遇到	-264
难埵	-265
非非	-266
▁纱织	-267
古仸朗	-268
女子力	-269
瓦拉罗	-270
辉夜姬	-271
▁乌拉德	-272
▁┇	-273
▁不	-274
▁善	-275
▁有	-276
世人	-277
为了	-278
传道	-279
伽薄	-280
修女	-281
几者	-282
化作	-283
国王	-284
塔斯	-285
头颅	-286
姿态	-287
将是	-288
平等	-289
撒戈	-290
无法	-291
星云	-292
是否	-293
未来	-294
欣喜	-295
殴打	-296
游玩	-297
演绎	-298
父母	-299
理由	-300
皆是	-301
税务	-302
空间	-303
等于	-304
维持	-305
自己	-306
观察	-307
记者	-308
论证	-309
诸般	-310
负责	-311
之时空	-312
古澜嘎	-313
异星人	-314
戈拉撒	-315
时空之	-316
神胜者	-317
诸大名	-318
赛塔斯	-319
非线性	-320
魔法使	-321
----	-322
▁阿难埵	-323
奥德莎曼	-324
撒戈伽薄	-325
阿姆特之	-326
AX	-327
▁—	-328
▁人	-329
▁哒	-330
▁无	-331
▁然	-332
▁花	-333
临在	-334
之母	-335
之间	-336
亦无	-337
农户	-338
凡是	-339
即是	-340
厌恶	-341
告诉	-342
奴隶	-343
学派	-344
孩童	-345
它们	-346
对应	-347
必然	-348
愈是	-349
戏谑	-350
战国	-351
救赎	-352
文明	-353
时辰	-354
是谁	-355
智者	-356
服饰	-357
权柄	-358
母之	-359
琳蒂	-360
神圣	-361
禀赋	-362
结合	-363
维度	-364
蒂奥	-365
行业	-366
计划	-367
谁又	-368
转换	-369
过程	-370
通讯	-371
雌雄	-372
青年	-373
顿觉	-374
驱逐	-375
▁因此	-376
▁那人	-377
之神圣	-378
合法性	-379
灵魂的	-380
琳蒂室	-381
级道义	-382
自己的	-383
艾琳斯	-384
▁比亚纶	-385
▁比拉玛	-386
▁阿陀沃	-387
古澜嘎姆	-388
纱织巫女	-389
),	-390
):	-391
lo	-392
▁于	-393
▁萨	-394
▁非	-395
▁魔	-396
一致	-397
三者	-398
上的	-399
不以	-400
不同	-401
主权	-402
之法	-403
事态	-404
以此	-405
企鹅	-406
伦理	-407
你的	-408
佩室	-409
依据	-410
分支	-411
启示	-412
告释	-413
喇巴	-414
土壤	-415
在大	-416
坦陀	-417
基座	-418
基督	-419
塔玛	-420
壮大	-421
婆乳	-422
家庭	-423
封闭	-424
工匠	-425
差使	-426
座是	-427
感叹	-428
感慨	-429
感知	-430
慨爱	-431
成就	-432
成立	-433
技艺	-434
措辞	-435
携带	-436
撰写	-437
支病	-438
敬畏	-439
斯哒	-440
无关	-441
无量	-442
时间	-443
权能	-444
流露	-445
清晰	-446
由此	-447
男性	-448
的爱	-449
直言	-450
相对	-451
神之	-452
神界	-453
笑曰	-454
管辖	-455
系统	-456
编纂	-457
美斯	-458
者何	-459
舅爷	-460
船员	-461
若有	-462
营救	-463
虚空	-464
行动	-465
记忆	-466
诅咒	-467
诞临	-468
诸神	-469
还原	-470
通过	-471
遗迹	-472
那是	-473
采访	-474
门徒	-475
间践	-476
降临	-477
雪之	-478
非正	-479
领域	-480
loy	-481
▁本质	-482
▁现象	-483
▁纪元	-484
农户女	-485
即如此	-486
却不见	-487
坦陀罗	-488
存在之	-489
斯佩室	-490
比修斯	-491
的智慧	-492
祭祀者	-493
蒙召者	-494
谛婆乳	-495
赛美斯	-496
▁喜比尔	-497
▁旧神官	-498
▁罕钵拉	-499
▁阿喃特	-500
奥菲丽斯	-501
慨爱斯哒	-502
瓦坦陀罗	-503
Fn	-504
NE	-505
▁O	-506
▁┷	-507
▁■	-508
▁传	-509
▁由	-510
▁耶	-511
▁超	-512
▁达	-513
一刻	-514
之性	-515
之难	-516
事项	-517
交涉	-518
亦可	-519
亦是	-520
什么	-521
以撒	-522
传播	-523
余等	-524
作者	-525
便不	-526
信仰	-527
元素	-528
全能	-529
公共	-530
兰达	-531
关联	-532
具感	-533
再由	-534
决定	-535
利姆	-536
利札	-537
利祂	-538
到的	-539
动荡	-540
却是	-541
发生	-542
发觉	-543
可能	-544
吃食	-545
听从	-546
吾奶	-547
告辞	-548
咔德	-549
哀叹	-550
喀西	-551
喃陀	-552
嘎忑	-553
国度	-554
圣灵	-555
大众	-556
奇迹	-557
如同	-558
姨奶	-559
它在	-560
安那	-561
布拉	-562
帮扶	-563
序列	-564
弥漫	-565
徘徊	-566
御风	-567
德性	-568
必要	-569
思想	-570
惊悚	-571
感质	-572
戈撒	-573
成长	-574
或巴	-575
抉择	-576
抵达	-577
措施	-578
攀谈	-579
政策	-580
文化	-581
料理	-582
时期	-583
普世	-584
普罗	-585
望向	-586
村落	-587
格纳	-588
概率	-589
此是	-590
毁灭	-591
水母	-592
法则	-593
波陀	-594
派遣	-595
流光	-596
灵魄	-597
爱意	-598
特曼	-599
特门	-600
狩人	-601
玛乌	-602
现实	-603
生命	-604
生者	-605
着付	-606
知其	-607
知悉	-608
社群	-609
神力	-610
神迹	-611
福音	-612
端倪	-613
符肇	-614
米纳	-615
纯粹	-616
纷争	-617
缔结	-618
胜神	-619
航行	-620
良人	-621
英雄	-622
裹尸	-623
见之	-624
规律	-625
言释	-626
认为	-627
讯问	-628
诸人	-629
贱民	-630
赛斯	-631
踏影	-632
辞藻	-633
达夫	-634
追踪	-635
遍布	-636
部分	-637
部委	-638
金融	-639
需要	-640
非等	-641
龙蛋	-642
▁--	-643
▁Fn	-644
▁一个	-645
▁修女	-646
▁太易	-647
▁存在	-648
▁故此	-649
▁神道	-650
二时辰	-651
喀哆拉	-652
在大街	-653
塔利祂	-654
娃喀西	-655
安那其	-656
希以撒	-657
戈撒钨	-658
拉嘎忑	-659
明神体	-660
是自然	-661
是谁的	-662
格纳宏	-663
玛咔德	-664
知识者	-665
神支病	-666
莎塔玛	-667
莎特曼	-668
萨喃陀	-669
这行业	-670
阿喃特	-671
马达夫	-672
▁ONE	-673
▁仁吾神	-674
▁农户女	-675
▁存在的	-676
古论巴姆	-677
古论巴达	-678
对方相对	-679
或巴利札	-680
是存在的	-681
普罗大众	-682
桔梗姬神	-683
玛乌丹陀	-684
蒂奥米纳	-685
▁撒戈伽薄	-686
和巴尔丹陀	-687
塔利祂或巴利札	-688
(?	-689
EW	-690
▁/	-691
▁>	-692
▁A	-693
▁·	-694
▁↑	-695
▁天	-696
▁对	-697
▁巴	-698
▁瓦	-699
▁自	-700
▁至	-701
▁路	-702
一体	-703
一方	-704
一种	-705
三神	-706
不允	-707
不再	-708
不对	-709
与吾	-710
与此	-711
世纪	-712
之不	-713
之女	-714
之爱	-715
也是	-716
习艺	-717
事由	-718
二神	-719
亦或	-720
亦然	-721
人是	-722
人格	-723
代表	-724
以人	-725
以至	-726
任何	-727
休假	-728
会谈	-729
伴侣	-730
何不	-731
何为	-732
何故	-733
何由	-734
倾慕	-735
光谱	-736
克帝	-737
六姬	-738
其神	-739
决断	-740
凋零	-741
刀在	-742
刀斧	-743
判定	-744
区块	-745
区间	-746
卜钵	-747
即可	-748
双颅	-749
发明	-750
号令	-751
啦波	-752
喀玛	-753
圣杯	-754
圣职	-755
圣血	-756
圣骸	-757
太易	-758
妖头	-759
审判	-760
寂灭	-761
寓意	-762
对的	-763
导弹	-764
展示	-765
属于	-766
左侧	-767
市场	-768
幸福	-769
庇护	-770
床榻	-771
府邸	-772
彼岸	-773
得以	-774
德品	-775
思绪	-776
恶性	-777
成功	-778
战略	-779
扁面	-780
执事	-781
技能	-782
折叠	-783
抚养	-784
报刊	-785
挚友	-786
捕获	-787
摄政	-788
摩筏	-789
支配	-790
放行	-791
斯之	-792
是何	-793
是吾	-794
是然	-795
有此	-796
未可	-797
未曾	-798
未知	-799
架构	-800
歌剧	-801
此时	-802
死者	-803
比例	-804
毗塔	-805
永恒	-806
汇报	-807
沙滩	-808
法王	-809
活动	-810
海浪	-811
混迹	-812
爱者	-813
珊瑚	-814
理解	-815
生到	-816
甲屑	-817
知此	-818
社民	-819
祀原	-820
神就	-821
祭品	-822
种子	-823
稳定	-824
穿梭	-825
答案	-826
类族	-827
终焉	-828
经过	-829
维护	-830
罪恶	-831
耦矩	-832
胶卷	-833
脚踝	-834
自在	-835
致电	-836
色彩	-837
节点	-838
花海	-839
萨黑	-840
行径	-841
询讯	-842
询问	-843
诸等	-844
贵妇	-845
赐福	-846
越是	-847
这即	-848
途中	-849
道经	-850
遭遇	-851
那里	-852
门派	-853
问题	-854
阴阳	-855
陀芙	-856
非不	-857
音姬	-858
预定	-859
(?)	-860
▁——	-861
▁三神	-862
▁先知	-863
▁凡是	-864
▁大雄	-865
▁异星	-866
▁摩诃	-867
▁耶露	-868
▁花魁	-869
▁门徒	-870
▁青年	-871
▁魔晶	-872
世界诞	-873
义人的	-874
习艺者	-875
先知和	-876
关系的	-877
双颅龙	-878
叔友之	-879
喀啦波	-880
喀拉玛	-881
嗒喀玛	-882
回归差	-883
实在者	-884
巴尔特	-885
恶男子	-886
意志和	-887
扁面蛸	-888
托利姆	-889
摄政王	-890
时代之	-891
未有不	-892
特门那	-893
的国民	-894
神企鹅	-895
萨波陀	-896
虚线升	-897
虚线降	-898
裹尸布	-899
超时空	-900
那工匠	-901
都灵的	-902
阿萨黑	-903
魔法师	-904
▁上帝言	-905
▁丹姆尔	-906
▁哈鹭芙	-907
▁喀德玛	-908
▁萨芙埵	-909
▁辉夜姬	-910
三愈罪之	-911
临在具感	-912
从世界诞	-913
嘚蕾祂仆	-914
因果关系	-915
在大街中	-916
思维演绎	-917
比亚纶之	-918
毗塔卜钵	-919
生到凋零	-920
萨拉嘎忑	-921
间践干涉	-922
魔法祀原	-923
▁上帝告诉	-924
▁哒琳蒂室	-925
▁奥菲丽斯	-926
▁神姬桔梗	-927
▁纪元桔梗	-928
巴尔丹陀和	-929
桔梗之姬神	-930
这行业将是	-931
古澜嘎姆法案	-932
从世界诞生到凋零	-933
AE	-934
AF	-935
Hy	-936
SC	-937
er	-938
▁)	-939
▁:	-940
▁±	-941
▁与	-942
▁两	-943
▁二	-944
▁古	-945
▁可	-946
▁周	-947
▁它	-948
▁星	-949
▁核	-950
▁正	-951
▁每	-952
▁灵	-953
▁真	-954
▁秩	-955
▁肇	-956
▁谁	-957
▁雇	-958
▁韦	-959
不在	-960
不应	-961
不等	-962
不良	-963
临近	-964
为其	-965
举起	-966
乃至	-967
义理	-968
义者	-969
之位	-970
之层	-971
之心	-972
之质	-973
之身	-974
之镜	-975
事者	-976
事迹	-977
于世	-978
亦非	-979
亵渎	-980
人啊	-981
人有	-982
仁吾	-983
代人	-984
代价	-985
价值	-986
体系	-987
何处	-988
何有	-989
作战	-990
作用	-991
便以	-992
便要	-993
信道	-994
借宿	-995
做客	-996
光速	-997
克轮	-998
全量	-999
公民	-1000
兰卡	-1001
兰摩	-1002
兵器	-1003
内容	-1004
再临	-1005
制度	-1006
前后	-1007
副手	-1008
劝解	-1009
加持	-1010
动态	-1011
包含	-1012
十二	-1013
协同	-1014
协调	-1015
危机	-1016
却不	-1017
压制	-1018
原罪	-1019
去之	-1020
去的	-1021
双方	-1022
变体	-1023
变形	-1024
变迁	-1025
台阶	-1026
右侧	-1027
合作	-1028
君王	-1029
吡那	-1030
吸引	-1031
吾母	-1032
吾皆	-1033
味的	-1034
命运	-1035
品的	-1036
哆拿	-1037
哒啦	-1038
哲理	-1039
喃子	-1040
善恶	-1041
善趋	-1042
嗅探	-1043
嘎拉	-1044
回忆	-1045
圣徒	-1046
圣意	-1047
圣胎	-1048
坦诚	-1049
基于	-1050
复杂	-1051
太空	-1052
奇异	-1053
女鬼	-1054
如何	-1055
妇人	-1056
委托	-1057
婚姻	-1058
孕育	-1059
存活	-1060
学术	-1061
宇宙	-1062
安全	-1063
安抚	-1064
定域	-1065
实体	-1066
实践	-1067
实验	-1068
审核	-1069
容器	-1070
察觉	-1071
察阅	-1072
对标	-1073
对此	-1074
将它	-1075
尊严	-1076
少女	-1077
就成	-1078
尴尬	-1079
尽数	-1080
居住	-1081
展现	-1082
属性	-1083
屠杀	-1084
工业	-1085
师之	-1086
希翼	-1087
带来	-1088
平庸	-1089
并非	-1090
幻想	-1091
应用	-1092
应许	-1093
座部	-1094
庸碌	-1095
徒贤	-1096
得至	-1097
德我	-1098
必有	-1099
忏悔	-1100
思议	-1101
思辨	-1102
性之	-1103
恋爱	-1104
恶魔	-1105
感受	-1106
懵懂	-1107
戈喇	-1108
成本	-1109
我的	-1110
托斯	-1111
执法	-1112
承担	-1113
承载	-1114
投靠	-1115
报告	-1116
拉姆	-1117
拉巴	-1118
拿咕	-1119
指挥	-1120
探询	-1121
接替	-1122
提供	-1123
收缴	-1124
故杀	-1125
敌友	-1126
教学	-1127
数参	-1128
文件	-1129
旋律	-1130
无二	-1131
无数	-1132
时由	-1133
是内	-1134
是外	-1135
是能	-1136
是非	-1137
普及	-1138
智识	-1139
暂行	-1140
暧昧	-1141
望着	-1142
本源	-1143
本能	-1144
杀戮	-1145
条件	-1146
条例	-1147
构成	-1148
果因	-1149
标签	-1150
楽爱	-1151
模型	-1152
残酷	-1153
毋以	-1154
母子	-1155
汝斯	-1156
法制	-1157
注意	-1158
浩瀚	-1159
海面	-1160
消亡	-1161
溯源	-1162
滑者	-1163
演行	-1164
然的	-1165
爆炸	-1166
玄姬	-1167
瑰丽	-1168
甄别	-1169
生物	-1170
界之	-1171
留存	-1172
的果	-1173
的此	-1174
的自	-1175
皆有	-1176
皆非	-1177
相通	-1178
眼睛	-1179
睹之	-1180
瞬间	-1181
矢量	-1182
知晓	-1183
研究	-1184
研讨	-1185
示录	-1186
礼仪	-1187
祂志	-1188
神代	-1189
神境	-1190
神爱	-1191
神眼	-1192
科技	-1193
称谓	-1194
稀少	-1195
窗子	-1196
窗户	-1197
窘迫	-1198
竟无	-1199
筏姆	-1200
策划	-1201
签证	-1202
管道	-1203
精英	-1204
纪录	-1205
纪检	-1206
组成	-1207
绝对	-1208
续道	-1209
续问	-1210
编制	-1211
编撰	-1212
置有	-1213
羞辱	-1214
者乎	-1215
联系	-1216
胜者	-1217
船队	-1218
良善	-1219
若以	-1220
若无	-1221
若要	-1222
营业	-1223
虔问	-1224
裁决	-1225
裙女	-1226
裙面	-1227
规训	-1228
认同	-1229
讯质	-1230
记录	-1231
诸法	-1232
调任	-1233
谛观	-1234
贞洁	-1235
责任	-1236
贤男	-1237
败坏	-1238
赖忒	-1239
赛雅	-1240
超十	-1241
轰炸	-1242
辨知	-1243
过去	-1244
运作	-1245
述释	-1246
追逐	-1247
适宜	-1248
途径	-1249
道书	-1250
道德	-1251
道的	-1252
道神	-1253
部门	-1254
重生	-1255
链条	-1256
错乱	-1257
错的	-1258
错误	-1259
锚定	-1260
镇定	-1261
门前	-1262
阴茎	-1263
隔离	-1264
雨夜	-1265
震撼	-1266
非以	-1267
非由	-1268
音神	-1269
顺应	-1270
预知	-1271
飞船	-1272
鬼妖	-1273
Hyp	-1274
erP	-1275
▁—>	-1276
▁乌拉	-1277
▁于此	-1278
▁仁吾	-1279
▁众神	-1280
▁何者	-1281
▁天界	-1282
▁对于	-1283
▁布拉	-1284
▁意志	-1285
▁意识	-1286
▁汝等	-1287
▁神官	-1288
▁第一	-1289
▁第三	-1290
▁第二	-1291
▁第五	-1292
▁第六	-1293
▁第四	-1294
▁舅爷	-1295
▁若与	-1296
▁记者	-1297
▁雇佣	-1298
》--	-1299
一刻是	-1300
不能直	-1301
世界之	-1302
之奴隶	-1303
之思维	-1304
之政治	-1305
之权柄	-1306
之海盗	-1307
了神的	-1308
于神的	-1309
人神之	-1310
人类中	-1311
仁吾神	-1312
众神的	-1313
你的神	-1314
信息之	-1315
元素键	-1316
吡那普	-1317
告诫之	-1318
和大雄	-1319
哒喇巴	-1320
天界神	-1321
奇迹鱼	-1322
奥赛斯	-1323
孩子的	-1324
它的神	-1325
定义层	-1326
德世界	-1327
德之海	-1328
必喃子	-1329
必然的	-1330
支配者	-1331
收到的	-1332
新神官	-1333
无量的	-1334
既如此	-1335
昧哒啦	-1336
是整体	-1337
是神者	-1338
本质者	-1339
格拉巴	-1340
桔梗曰	-1341
此几者	-1342
此智慧	-1343
比尔斯	-1344
汝之神	-1345
现象者	-1346
的号令	-1347
的存在	-1348
的未来	-1349
的灵魂	-1350
的计划	-1351
的那里	-1352
相通整	-1353
神姬之	-1354
穿梭机	-1355
筏拿咕	-1356
索比亚	-1357
织质之	-1358
者稀少	-1359
能辨识	-1360
若置有	-1361
苯哆拉	-1362
莫不是	-1363
菲托斯	-1364
萨克帝	-1365
讯何由	-1366
谁就要	-1367
赛哆拿	-1368
赛雅西	-1369
那人的	-1370
那就是	-1371
都兰达	-1372
驱逐时	-1373
默示录	-1374
ploy	-1375
▁--《	-1376
▁乌拉莎	-1377
▁先知斯	-1378
▁双颅龙	-1379
▁哒喇巴	-1380
▁嗒喀玛	-1381
▁有海盗	-1382
▁桔梗之	-1383
▁桔梗诫	-1384
▁比修斯	-1385
▁蒙召者	-1386
▁达布斯	-1387
▁达赖忒	-1388
▁那人便	-1389
▁马达夫	-1390
不可思议	-1391
之丹姆尔	-1392
于奥利巴	-1393
人格之神	-1394
你们必要	-1395
克轮比修	-1396
去人类中	-1397
和阿陀沃	-1398
哒琳蒂室	-1399
喀德玛之	-1400
奥利巴埵	-1401
奥利巴筏	-1402
奥利摩筏	-1403
拟态时空	-1404
旧神官之	-1405
玛咔德的	-1406
类族隔离	-1407
精神错乱	-1408
纯粹神性	-1409
自然演绎	-1410
质相通整	-1411
逻辑数参	-1412
遇到同僚	-1413
雌雄结合	-1414
▁姬神桔梗	-1415
▁玛乌丹陀	-1416
义人的头颅	-1417
殴打古仸朗	-1418
没有一刻是	-1419
稳定元素键	-1420
雨夜驱逐时	-1421
HyperP	-1422
▁有海盗船员	-1423
▁花魁米利亚	-1424
▁上帝告诉世人	-1425
纱织和巴尔丹陀	-1426
▁若这人在大街中	-1427
HyperPloy	-1428
);	-1429
)。	-1430
-→	-1431
;(	-1432
;↓	-1433
AS	-1434
FC	-1435
ce	-1436
li	-1437
▁S	-1438
▁且	-1439
▁乌	-1440
▁令	-1441
▁反	-1442
▁同	-1443
▁后	-1444
▁唯	-1445
▁奶	-1446
▁姬	-1447
▁定	-1448
▁室	-1449
▁寓	-1450
▁就	-1451
▁库	-1452
▁弥	-1453
▁当	-1454
▁忒	-1455
▁恰	-1456
▁想	-1457
▁愈	-1458
▁我	-1459
▁或	-1460
▁战	-1461
▁拉	-1462
▁数	-1463
▁最	-1464
▁果	-1465
▁根	-1466
▁着	-1467
▁种	-1468
▁符	-1469
▁索	-1470
▁预	-1471
一代	-1472
一战	-1473
一端	-1474
一般	-1475
七维	-1476
不作	-1477
不具	-1478
不堕	-1479
不得	-1480
不缴	-1481
不触	-1482
不识	-1483
与其	-1484
与地	-1485
与对	-1486
与文	-1487
世神	-1488
世者	-1489
业必	-1490
中人	-1491
中央	-1492
中窥	-1493
中草	-1494
中间	-1495
临界	-1496
临走	-1497
为何	-1498
久时	-1499
Ax	-1500
▁序	-1501
▁确	-1502
▁耦	-1503
▁觉	-1504
▁遇	-1505
不愿	-1506
之业	-1507
之主	-1508
之人	-1509
之任	-1510
之余	-1511
之劫	-1512
之协	-1513
之友	-1514
之后	-1515
之国	-1516
之场	-1517
之失	-1518
之姐	-1519
之席	-1520
之志	-1521
之情	-1522
之戾	-1523
之流	-1524
之眼	-1525
之经	-1526
之者	-1527
之色	-1528
之询	-1529
之门	-1530
之魔	-1531
乌坦	-1532
买卖	-1533
乳婆	-1534
乳曲	-1535
争议	-1536
事务	-1537
事宜	-1538
事实	-1539
二道	-1540
于你	-1541
互相	-1542
五维	-1543
亚波	-1544
亚阿	-1545
亡于	-1546
交媾	-1547
亦伪	-1548
亦自	-1549
人爱	-1550
人者	-1551
人质	-1552
人闻	-1553
人难	-1554
人鱼	-1555
仁道	-1556
从而	-1557
代以	-1558
以千	-1559
仿佛	-1560
会饮	-1561
伟大	-1562
传说	-1563
伪暴	-1564
佐辅	-1565
体如	-1566
何以	-1567
何在	-1568
何焉	-1569
何被	-1570
你在	-1571
使长	-1572
依附	-1573
侧向	-1574
便如	-1575
便歹	-1576
便由	-1577
便缚	-1578
便言	-1579
信解	-1580
信讯	-1581
修习	-1582
修炼	-1583
光音	-1584
入赘	-1585
全知	-1586
公系	-1587
六维	-1588
兰哒	-1589
兰姆	-1590
关照	-1591
其中	-1592
其余	-1593
其有	-1594
其皮	-1595
其频	-1596
具己	-1597
具神	-1598
具象	-1599
养育	-1600
再以	-1601
再度	-1602
再组	-1603
再转	-1604
冲突	-1605
冷汗	-1606
减少	-1607
凝视	-1608
出现	-1609
刀劈	-1610
分配	-1611
则要	-1612
判别	-1613
判类	-1614
利巴	-1615
到了	-1616
刻录	-1617
前定	-1618
剩余	-1619
力如	-1620
劝岂	-1621
劝诫	-1622
办事	-1623
功效	-1624
功而	-1625
劳务	-1626
勃然	-1627
匮乏	-1628
匿避	-1629
十由	-1630
单字	-1631
占卜	-1632
印象	-1633
即会	-1634
即刻	-1635
即此	-1636
即毋	-1637
却如	-1638
却已	-1639
却非	-1640
原是	-1641
原设	-1642
参数	-1643
双极	-1644
双者	-1645
反向	-1646
发法	-1647
发狂	-1648
发现	-1649
取代	-1650
取值	-1651
受限	-1652
变换	-1653
叙言	-1654
口号	-1655
古塔	-1656
可信	-1657
可在	-1658
可携	-1659
可知	-1660
史诗	-1661
吉祥	-1662
同性	-1663
同时	-1664
后定	-1665
后背	-1666
君子	-1667
吞噬	-1668
听闻	-1669
吾可	-1670
吾愿	-1671
吾狩	-1672
告徒	-1673
呼吸	-1674
命者	-1675
咀嚼	-1676
和华	-1677
和长	-1678
咸觉	-1679
哀伤	-1680
哀对	-1681
哉米	-1682
哭声	-1683
哲神	-1684
唯那	-1685
商讨	-1686
喃婆	-1687
善事	-1688
善人	-1689
善活	-1690
善罪	-1691
喜鹊	-1692
喻石	-1693
嘲讽	-1694
回响	-1695
回头	-1696
回收	-1697
回溯	-1698
因为	-1699
图中	-1700
图纹	-1701
圣源	-1702
圣袍	-1703
在人	-1704
在此	-1705
坛设	-1706
垄断	-1707
埋怨	-1708
基琉	-1709
外星	-1710
外的	-1711
多拉	-1712
夜的	-1713
大之	-1714
大天	-1715
大将	-1716
大怒	-1717
天地	-1718
天如	-1719
天的	-1720
天门	-1721
太初	-1722
夫妻	-1723
失误	-1724
奇怪	-1725
奇遇	-1726
奇问	-1727
契机	-1728
奢侈	-1729
奥书	-1730
奥美	-1731
女之	-1732
女着	-1733
如其	-1734
如婴	-1735
如山	-1736
如己	-1737
如烛	-1738
,	-1739
▁	-1740
;	-1741
之	-1742
神	-1743
的	-1744
是	-1745
者	-1746
人	-1747
p	-1748
e	-1749
s	-1750
&	-1751
m	-1752
不	-1753
时	-1754
在	-1755
此	-1756
非	-1757
吾	-1758
【	-1759
】	-1760
性	-1761
。	-1762
以	-1763
拉	-1764
于	-1765
德	-1766
中	-1767
有	-1768
道	-1769
桔	-1770
梗	-1771
知	-1772
姆	-1773
如	-1774
法	-1775
斯	-1776
(	-1777
)	-1778
其	-1779
能	-1780
女	-1781
无	-1782
存	-1783
尔	-1784
姬	-1785
那	-1786
巴	-1787
丹	-1788
和	-1789
子	-1790
陀	-1791
体	-1792
达	-1793
一	-1794
阿	-1795
可	-1796
爱	-1797
比	-1798
然	-1799
若	-1800
故	-1801
质	-1802
空	-1803
这	-1804
:	-1805
等	-1806
与	-1807
义	-1808
即	-1809
言	-1810
|	-1811
意	-1812
世	-1813
大	-1814
诸	-1815
自	-1816
-	-1817
事	-1818
何	-1819
界	-1820
间	-1821
特	-1822
维	-1823
亦	-1824
由	-1825
圣	-1826
奥	-1827
思	-1828
天	-1829
对	-1830
母	-1831
识	-1832
利	-1833
祂	-1834
实	-1835
代	-1836
作	-1837
使	-1838
再	-1839
或	-1840
系	-1841
定	-1842
成	-1843
就	-1844
至	-1845
灵	-1846
亚	-1847
便	-1848
告	-1849
星	-1850
汝	-1851
同	-1852
见	-1853
仁	-1854
巫	-1855
应	-1856
正	-1857
胜	-1858
三	-1859
得	-1860
玛	-1861
信	-1862
却	-1863
因	-1864
态	-1865
战	-1866
皆	-1867
业	-1868
觉	-1869
为	-1870
必	-1871
智	-1872
理	-1873
萨	-1874
通	-1875
遇	-1876
关	-1877
未	-1878
上	-1879
行	-1880
务	-1881
感	-1882
戈	-1883
摩	-1884
相	-1885
纪	-1886
织	-1887
[	-1888
]	-1889
临	-1890
志	-1891
要	-1892
讯	-1893
论	-1894
父	-1895
男	-1896
门	-1897
蒂	-1898
恶	-1899
政	-1900
海	-1901
克	-1902
合	-1903
喜	-1904
国	-1905
辨	-1906
鹭	-1907
·	-1908
仆	-1909
古	-1910
异	-1911
民	-1912
生	-1913
被	-1914
乎	-1915
善	-1916
愈	-1917
明	-1918
权	-1919
类	-1920
问	-1921
你	-1922
元	-1923
度	-1924
我	-1925
蕾	-1926
书	-1927
具	-1928
力	-1929
动	-1930
将	-1931
果	-1932
现	-1933
难	-1934
原	-1935
后	-1936
它	-1937
纱	-1938
光	-1939
则	-1940
喀	-1941
己	-1942
教	-1943
流	-1944
罗	-1945
象	-1946
乌	-1947
亲	-1948
奇	-1949
本	-1950
琳	-1951
着	-1952
罪	-1953
芙	-1954
莎	-1955
谁	-1956
超	-1957
过	-1958
魔	-1959
化	-1960
布	-1961
第	-1962
诫	-1963
任	-1964
众	-1965
友	-1966
头	-1967
家	-1968
米	-1969
释	-1970
量	-1971
音	-1972
会	-1973
到	-1974
发	-1975
埵	-1976
撒	-1977
观	-1978
赛	-1979
钵	-1980
面	-1981
地	-1982
室	-1983
察	-1984
族	-1985
来	-1986
社	-1987
章	-1988
经	-1989
迹	-1990
们	-1991
传	-1992
位	-1993
唯	-1994
坦	-1995
塔	-1996
官	-1997
慧	-1998
真	-1999
职	-2000
解	-2001
A	-2002
了	-2003
名	-2004
学	-2005
报	-2006
而	-2007
都	-2008
二	-2009
先	-2010
哒	-2011
眼	-2012
线	-2013
路	-2014
部	-2015
决	-2016
协	-2017
受	-2018
域	-2019
多	-2020
携	-2021
文	-2022
曾	-2023
王	-2024
认	-2025
询	-2026
修	-2027
吡	-2028
品	-2029
喃	-2030
回	-2031
处	-2032
帝	-2033
支	-2034
普	-2035
曼	-2036
游	-2037
罕	-2038
节	-2039
邸	-2040
偶	-2041
分	-2042
制	-2043
基	-2044
数	-2045
曰	-2046
直	-2047
纶	-2048
般	-2049
花	-2050
谛	-2051
E	-2052
整	-2053
瓦	-2054
续	-2055
辞	-2056
雄	-2057
、	-2058
下	-2059
全	-2060
前	-2061
太	-2062
序	-2063
待	-2064
徒	-2065
情	-2066
持	-2067
方	-2068
机	-2069
滑	-2070
祀	-2071
祭	-2072
议	-2073
长	-2074
魂	-2075
个	-2076
允	-2077
否	-2078
孩	-2079
差	-2080
拟	-2081
望	-2082
派	-2083
睹	-2084
示	-2085
福	-2086
策	-2087
纳	-2088
结	-2089
记	-2090
身	-2091
述	-2092
随	-2093
驮	-2094
从	-2095
余	-2096
出	-2097
功	-2098
向	-2099
命	-2100
哉	-2101
夜	-2102
奶	-2103
安	-2104
少	-2105
径	-2106
律	-2107
心	-2108
息	-2109
承	-2110
接	-2111
杀	-2112
概	-2113
水	-2114
灭	-2115
虚	-2116
规	-2117
贵	-2118
转	-2119
↓	-2120
公	-2121
切	-2122
变	-2123
归	-2124
旧	-2125
服	-2126
毋	-2127
沃	-2128
活	-2129
离	-2130
筏	-2131
色	-2132
视	-2133
重	-2134
闻	-2135
需	-2136
风	-2137
S	-2138
主	-2139
丽	-2140
争	-2141
兰	-2142
刻	-2143
去	-2144
嘎	-2145
封	-2146
层	-2147
录	-2148
惊	-2149
想	-2150
收	-2151
救	-2152
期	-2153
欲	-2154
波	-2155
火	-2156
种	-2157
精	-2158
约	-2159
证	-2160
责	-2161
遭	-2162
预	-2163
食	-2164
乳	-2165
令	-2166
判	-2167
夫	-2168
已	-2169
师	-2170
平	-2171
座	-2172
技	-2173
札	-2174
格	-2175
案	-2176
涉	-2177
源	-2178
演	-2179
焉	-2180
税	-2181
立	-2182
船	-2183
良	-2184
落	-2185
诃	-2186
予	-2187
依	-2188
十	-2189
印	-2190
叠	-2191
哆	-2192
导	-2193
岂	-2194
府	-2195
忆	-2196
念	-2197
恩	-2198
易	-2199
楽	-2200
治	-2201
笑	-2202
编	-2203
肇	-2204
艺	-2205
诞	-2206
露	-2207
/	-2208
交	-2209
侧	-2210
双	-2211
器	-2212
备	-2213
失	-2214
婆	-2215
婚	-2216
年	-2217
所	-2218
托	-2219
据	-2220
效	-2221
核	-2222
消	-2223
用	-2224
看	-2225
秩	-2226
管	-2227
美	-2228
联	-2229
菲	-2230
血	-2231
请	-2232
谈	-2233
赋	-2234
跪	-2235
运	-2236
逻	-2237
配	-2238
降	-2239
也	-2240
价	-2241
兵	-2242
几	-2243
刀	-2244
又	-2245
叔	-2246
取	-2247
叹	-2248
哈	-2249
复	-2250
妥	-2251
妻	-2252
尺	-2253
工	-2254
希	-2255
式	-2256
恋	-2257
敌	-2258
断	-2259
景	-2260
条	-2261
点	-2262
物	-2263
盗	-2264
突	-2265
竟	-2266
致	-2267
调	-2268
载	-2269
辑	-2270
途	-2271
金	-2272
颅	-2273
龙	-2274
X	-2275
习	-2276
乱	-2277
兮	-2278
划	-2279
周	-2280
哀	-2281
喇	-2282
场	-2283
展	-2284
带	-2285
底	-2286
引	-2287
御	-2288
慨	-2289
户	-2290
打	-2291
执	-2292
指	-2293
换	-2294
敬	-2295
最	-2296
极	-2297
玩	-2298
程	-2299
端	-2300
绝	-2301
范	-2302
裙	-2303
诚	-2304
追	-2305
逐	-2306
青	-2307
领	-2308
高	-2309
鱼	-2310
F	-2311
W	-2312
—	-2313
云	-2314
典	-2315
听	-2316
啊	-2317
嗣	-2318
妖	-2319
委	-2320
姿	-2321
密	-2322
尽	-2323
干	-2324
弥	-2325
形	-2326
影	-2327
悉	-2328
愿	-2329
择	-2330
拿	-2331
探	-2332
措	-2333
放	-2334
暂	-2335
暴	-2336
标	-2337
死	-2338
气	-2339
清	-2340
稀	-2341
素	-2342
群	-2343
虔	-2344
表	-2345
装	-2346
许	-2347
贤	-2348
遗	-2349
顿	-2350
且	-2351
仪	-2352
伪	-2353
伽	-2354
像	-2355
僚	-2356
入	-2357
六	-2358
办	-2359
口	-2360
召	-2361
图	-2362
堂	-2363
外	-2364
姐	-2365
孕	-2366
容	-2367
寻	-2368
属	-2369
开	-2370
当	-2371
役	-2372
恐	-2373
戏	-2374
手	-2375
撰	-2376
昧	-2377
柄	-2378
残	-2379
毗	-2380
求	-2381
澜	-2382
畴	-2383
盖	-2384
石	-2385
破	-2386
禀	-2387
私	-2388
童	-2389
符	-2390
级	-2391
翼	-2392
营	-2393
计	-2394
负	-2395
辉	-2396
速	-2397
错	-2398
镜	-2399
队	-2400
阴	-2401
y	-2402
仸	-2403
值	-2404
写	-2405
凡	-2406
区	-2407
危	-2408
参	-2409
台	-2410
史	-2411
号	-2412
呼	-2413
喻	-2414
四	-2415
妇	-2416
字	-2417
审	-2418
寓	-2419
尸	-2420
廷	-2421
彼	-2422
往	-2423
忒	-2424
怪	-2425
慕	-2426
护	-2427
提	-2428
旋	-2429
朗	-2430
构	-2431
欣	-2432
没	-2433
涌	-2434
漫	-2435
照	-2436
狩	-2437
电	-2438
研	-2439
礼	-2440
答	-2441
索	-2442
终	-2443
绎	-2444
育	-2445
胎	-2446
舅	-2447
蒙	-2448
裹	-2449
讨	-2450
设	-2451
践	-2452
还	-2453
进	-2454
迫	-2455
里	-2456
链	-2457
闭	-2458
阅	-2459
雪	-2460
饰	-2461
l	-2462
o	-2463
┇	-2464
亡	-2465
假	-2466
养	-2467
劝	-2468
单	-2469
启	-2470
味	-2471
哲	-2472
壤	-2473
声	-2474
奴	-2475
妹	-2476
居	-2477
并	-2478
庭	-2479
弹	-2480
怒	-2481
恒	-2482
术	-2483
查	-2484
歌	-2485
殴	-2486
混	-2487
溯	-2488
爷	-2489
畏	-2490
留	-2491
眠	-2492
窗	-2493
签	-2494
糖	-2495
纷	-2496
置	-2497
耦	-2498
英	-2499
荡	-2500
薄	-2501
西	-2502
访	-2503
诉	-2504
谑	-2505
败	-2506
赎	-2507
遍	-2508
采	-2509
阶	-2510
题	-2511
鬼	-2512
魄	-2513
>	-2514
O	-2515
万	-2516
两	-2517
五	-2518
仅	-2519
付	-2520
仰	-2521
企	-2522
伦	-2523
伴	-2524
佩	-2525
例	-2526
做	-2527
内	-2528
册	-2529
农	-2530
列	-2531
初	-2532
别	-2533
势	-2534
华	-2535
卜	-2536
厌	-2537
及	-2538
员	-2539
咒	-2540
啦	-2541
嗒	-2542
土	-2543
境	-2544
夺	-2545
常	-2546
幼	-2547
庸	-2548
彩	-2549
悚	-2550
惑	-2551
才	-2552
投	-2553
折	-2554
抚	-2555
抵	-2556
挚	-2557
攀	-2558
料	-2559
新	-2560
既	-2561
晶	-2562
村	-2563
树	-2564
样	-2565
永	-2566
汇	-2567
注	-2568
率	-2569
略	-2570
病	-2571
白	-2572
皮	-2573
督	-2574
确	-2575
称	-2576
统	-2577
缴	-2578
缺	-2579
耶	-2580
肢	-2581
背	-2582
航	-2583
艾	-2584
藏	-2585
蛋	-2586
街	-2587
训	-2588
语	-2589
谓	-2590
貌	-2591
辖	-2592
辰	-2593
近	-2594
适	-2595
遂	-2596
遣	-2597
避	-2598
隔	-2599
隶	-2600
雌	-2601
震	-2602
频	-2603
首	-2604
驱	-2605
验	-2606
黑	-2607
V	-2608
n	-2609
互	-2610
件	-2611
仿	-2612
休	-2613
供	-2614
借	-2615
倾	-2616
共	-2617
冲	-2618
冷	-2619
刊	-2620
剧	-2621
匠	-2622
卷	-2623
压	-2624
反	-2625
另	-2626
各	-2627
君	-2628
吸	-2629
商	-2630
块	-2631
型	-2632
壮	-2633
姨	-2634
季	-2635
宇	-2636
宏	-2637
尴	-2638
山	-2639
帮	-2640
庇	-2641
弟	-2642
弱	-2643
征	-2644
徊	-2645
戮	-2646
扶	-2647
抗	-2648
抽	-2649
捕	-2650
推	-2651
操	-2652
斧	-2653
晰	-2654
杯	-2655
染	-2656
根	-2657
歹	-2658
殿	-2659
毁	-2660
灌	-2661
灯	-2662
炸	-2663
爆	-2664
狂	-2665
琉	-2666
甲	-2667
瞬	-2668
稳	-2669
穿	-2670
窥	-2671
算	-2672
纂	-2673
纯	-2674
组	-2675
继	-2676
缔	-2677
缘	-2678
耻	-2679
臻	-2680
莫	-2681
获	-2682
藻	-2683
衡	-2684
袭	-2685
诅	-2686
误	-2687
说	-2688
谱	-2689
贞	-2690
贱	-2691
踏	-2692
踪	-2693
轰	-2694
边	-2695
醒	-2696
铺	-2697
限	-2698
院	-2699
隐	-2700
雨	-2701
静	-2702
项	-2703
顺	-2704
马	-2705
骨	-2706
魁	-2707
鲁	-2708
鹅	-2709
C	-2710
H	-2711
N	-2712
P	-2713
┷	-2714
■	-2715
严	-2716
举	-2717
久	-2718
么	-2719
什	-2720
伏	-2721
伤	-2722
住	-2723
保	-2724
倪	-2725
减	-2726
击	-2727
刚	-2728
加	-2729
劫	-2730
包	-2731
吃	-2732
含	-2733
咔	-2734
坏	-2735
姻	-2736
娃	-2737
宜	-2738
客	-2739
害	-2740
宿	-2741
寂	-2742
屠	-2743
左	-2744
床	-2745
弃	-2746
弦	-2747
徘	-2748
循	-2749
忑	-2750
悦	-2751
悬	-2752
扑	-2753
抉	-2754
控	-2755
摄	-2756
播	-2757
撼	-2758
散	-2759
斥	-2760
施	-2761
映	-2762
曲	-2763
更	-2764
替	-2765
梦	-2766
梭	-2767
步	-2768
段	-2769
每	-2770
毫	-2771
浪	-2772
满	-2773
炼	-2774
炽	-2775
环	-2776
矢	-2777
禁	-2778
粹	-2779
绪	-2780
署	-2781
耳	-2782
肉	-2783
脚	-2784
脱	-2785
舞	-2786
舱	-2787
草	-2788
著	-2789
虽	-2790
融	-2791
衰	-2792
袍	-2793
裂	-2794
褚	-2795
读	-2796
谋	-2797
贫	-2798
资	-2799
走	-2800
越	-2801
躯	-2802
轮	-2803
辅	-2804
辱	-2805
迅	-2806
退	-2807
选	-2808
造	-2809
遥	-2810
邀	-2811
钨	-2812
键	-2813
闹	-2814
除	-2815
隅	-2816
零	-2817
韦	-2818
颜	-2819
飞	-2820
鲜	-2821
默	-2822
1	-2823
4	-2824
?	-2825
M	-2826
↑	-2827
《	-2828
》	-2829
七	-2830
乐	-2831
乘	-2832
买	-2833
亵	-2834
今	-2835
伐	-2836
似	-2837
侣	-2838
儿	-2839
免	-2840
军	-2841
准	-2842
凋	-2843
刹	-2844
劳	-2845
医	-2846
升	-2847
呈	-2848
呢	-2849
嘚	-2850
噫	-2851
圆	-2852
均	-2853
奋	-2854
好	-2855
媚	-2856
嬉	-2857
守	-2858
完	-2859
尊	-2860
小	-2861
尚	-2862
尬	-2863
屑	-2864
岸	-2865
嵌	-2866
市	-2867
幸	-2868
幻	-2869
库	-2870
微	-2871
忘	-2872
总	-2873
悲	-2874
惧	-2875
慰	-2876
懂	-2877
懵	-2878
扁	-2879
担	-2880
攻	-2881
早	-2882
显	-2883
晕	-2884
暧	-2885
杂	-2886
架	-2887
检	-2888
榻	-2889
次	-2890
池	-2891
沙	-2892
泼	-2893
洁	-2894
测	-2895
滩	-2896
炮	-2897
猎	-2898
珊	-2899
瑚	-2900
甚	-2901
疑	-2902
目	-2903
睡	-2904
矩	-2905
祈	-2906
科	-2907
移	-2908
究	-2909
窘	-2910
简	-2911
箭	-2912
粒	-2913
纠	-2914
细	-2915
羞	-2916
聘	-2917
聩	-2918
胶	-2919
舍	-2920
茎	-2921
蛸	-2922
衣	-2923
补	-2924
讥	-2925
讽	-2926
该	-2927
诺	-2928
财	-2929
赐	-2930
赠	-2931
赦	-2932
起	-2933
趋	-2934
踝	-2935
返	-2936
远	-2937
违	-2938
遁	-2939
邪	-2940
邻	-2941
酒	-2942
钝	-2943
钻	-2944
阳	-2945
际	-2946
陨	-2947
雅	-2948
雇	-2949
靠	-2950
颂	-2951
饮	-2952
骸	-2953
魅	-2954
鸣	-2955
2	-2956
3	-2957
i	-2958
r	-2959
±	-2960
Ψ	-2961
丝	-2962
乃	-2963
九	-2964
佐	-2965
佑	-2966
佣	-2967
侍	-2968
俗	-2969
停	-2970
健	-2971
兆	-2972
八	-2973
兼	-2974
况	-2975
凭	-2976
副	-2977
助	-2978
匿	-2979
千	-2980
卖	-2981
博	-2982
占	-2983
卡	-2984
叙	-2985
右	-2986
叶	-2987
吞	-2988
吹	-2989
吻	-2990
咕	-2991
响	-2992
哥	-2993
唱	-2994
嗅	-2995
噬	-2996
坚	-2997
城	-2998
堕	-2999
增	-3000
壁	-3001
奉	-3002
契	-3003
妙	-3004
妲	-3005
始	-3006
婴	-3007
宙	-3008
宪	-3009
宽	-3010
寿	-3011
射	-3012
局	-3013
幂	-3014
幽	-3015
庄	-3016
廉	-3017
延	-3018
建	-3019
强	-3020
忏	-3021
忧	-3022
怀	-3023
怨	-3024
恍	-3025
恭	-3026
恰	-3027
悔	-3028
悟	-3029
惜	-3030
惯	-3031
愉	-3032
慈	-3033
戒	-3034
披	-3035
拆	-3036
拍	-3037
拓	-3038
拼	-3039
挂	-3040
挥	-3041
授	-3042
掉	-3043
排	-3044
改	-3045
旁	-3046
旅	-3047
晓	-3048
月	-3049
木	-3050
末	-3051
林	-3052
柱	-3053
校	-3054
梢	-3055
模	-3056
欢	-3057
殆	-3058
毕	-3059
汗	-3060
沉	-3061
沾	-3062
泥	-3063
浩	-3064
液	-3065
渎	-3066
湖	-3067
漏	-3068
潜	-3069
瀚	-3070
灼	-3071
灾	-3072
烧	-3073
热	-3074
焦	-3075
燃	-3076
片	-3077
版	-3078
牵	-3079
狱	-3080
玄	-3081
球	-3082
瑰	-3083
甄	-3084
痕	-3085
百	-3086
皇	-3087
盈	-3088
眷	-3089
睛	-3090
瞳	-3091
矣	-3092
碌	-3093
祸	-3094
稿	-3095
窕	-3096
红	-3097
给	-3098
绵	-3099
缠	-3100
缩	-3101
耆	-3102
胀	-3103
脏	-3104
膜	-3105
臣	-3106
舰	-3107
艰	-3108
苯	-3109
茶	-3110
虑	-3111
蝶	-3112
裁	-3113
褶	-3114
觐	-3115
触	-3116
讲	-3117
诰	-3118
诵	-3119
赖	-3120
赞	-3121
趁	-3122
足	-3123
距	-3124
辩	-3125
迁	-3126
送	-3127
酷	-3128
锈	-3129
锚	-3130
镇	-3131
阇	-3132
附	-3133
陷	-3134
障	-3135
雏	-3136
顷	-3137
颤	-3138
.	-3139
5	-3140
I	-3141
L	-3142
Y	-3143
c	-3144
x	-3145
→	-3146
丘	-3147
乏	-3148
些	-3149
产	-3150
享	-3151
亮	-3152
亿	-3153
仏	-3154
份	-3155
优	-3156
伟	-3157
佛	-3158
侈	-3159
侵	-3160
候	-3161
偏	-3162
偷	-3163
偿	-3164
储	-3165
僧	-3166
冰	-3167
净	-3168
凛	-3169
凝	-3170
创	-3171
刺	-3172
剥	-3173
剩	-3174
劈	-3175
勃	-3176
匮	-3177
半	-3178
厄	-3179
历	-3180
只	-3181
吉	-3182
吗	-3183
吧	-3184
吼	-3185
呵	-3186
咀	-3187
咸	-3188
哭	-3189
哺	-3190
唏	-3191
唤	-3192
嗔	-3193
嘘	-3194
嘲	-3195
嚼	-3196
困	-3197
固	-3198
坐	-3199
坛	-3200
坡	-3201
垄	-3202
垫	-3203
埋	-3204
堡	-3205
堪	-3206
塌	-3207
够	-3208
夭	-3209
央	-3210
奈	-3211
奏	-3212
奔	-3213
奖	-3214
套	-3215
奢	-3216
妾	-3217
媾	-3218
孪	-3219
宁	-3220
宣	-3221
寄	-3222
寰	-3223
尘	-3224
尾	-3225
届	-3226
崩	-3227
巡	-3228
巧	-3229
巷	-3230
席	-3231
帼	-3232
庆	-3233
店	-3234
废	-3235
彰	-3236
忌	-3237
快	-3238
怎	-3239
怖	-3240
悄	-3241
悠	-3242
患	-3243
您	-3244
悯	-3245
惚	-3246
惶	-3247
愁	-3248
愚	-3249
愤	-3250
戟	-3251
戾	-3252
扰	-3253
抢	-3254
抱	-3255
拂	-3256
招	-3257
拾	-3258
挟	-3259
振	-3260
捏	-3261
捞	-3262
捷	-3263
掷	-3264
描	-3265
摆	-3266
敲	-3267
斡	-3268
旬	-3269
昵	-3270
晃	-3271
暗	-3272
曳	-3273
朴	-3274
松	-3275
析	-3276
枕	-3277
枝	-3278
某	-3279
桥	-3280
梁	-3281
械	-3282
植	-3283
欺	-3284
止	-3285
武	-3286
歼	-3287
毅	-3288
毒	-3289
毙	-3290
毛	-3291
汐	-3292
汞	-3293
污	-3294
沟	-3295
沦	-3296
沿	-3297
泄	-3298
泉	-3299
泡	-3300
泽	-3301
洞	-3302
济	-3303
浮	-3304
渐	-3305
渗	-3306
温	-3307
渴	-3308
湿	-3309
溅	-3310
溜	-3311
溢	-3312
溪	-3313
滞	-3314
潢	-3315
潭	-3316
濒	-3317
炙	-3318
烛	-3319
焰	-3320
犬	-3321
犯	-3322
狐	-3323
独	-3324
狭	-3325
狮	-3326
玉	-3327
珠	-3328
瑟	-3329
璃	-3330
画	-3331
畔	-3332
疯	-3333
疲	-3334
痛	-3335
登	-3336
皈	-3337
皱	-3338
益	-3339
盛	-3340
盟	-3341
盲	-3342
睦	-3343
瞥	-3344
短	-3345
硕	-3346
碍	-3347
碎	-3348
祖	-3349
祝	-3350
祟	-3351
祥	-3352
祷	-3353
秘	-3354
积	-3355
穴	-3356
筑	-3357
筹	-3358
箔	-3359
箴	-3360
簇	-3361
籁	-3362
籽	-3363
粕	-3364
粘	-3365
糕	-3366
糟	-3367
繁	-3368
纵	-3369
纹	-3370
绘	-3371
络	-3372
绯	-3373
绿	-3374
缓	-3375
缚	-3376
网	-3377
罚	-3378
羊	-3379
耀	-3380
老	-3381
耗	-3382
肌	-3383
股	-3384
肤	-3385
胞	-3386
脉	-3387
腐	-3388
腾	-3389
舷	-3390
芯	-3391
苦	-3392
荫	-3393
蔑	-3394
蔽	-3395
蕊	-3396
蕴	-3397
薪	-3398
虹	-3399
蛊	-3400
蛰	-3401
蜕	-3402
衍	-3403
袖	-3404
褥	-3405
覆	-3406
觅	-3407
誓	-3408
警	-3409
词	-3410
诗	-3411
话	-3412
诱	-3413
诽	-3414
谄	-3415
谢	-3416
谤	-3417
谬	-3418
货	-3419
费	-3420
贺	-3421
赘	-3422
跋	-3423
跳	-3424
踵	-3425
蹭	-3426
车	-3427
轨	-3428
较	-3429
辛	-3430
辜	-3431
迎	-3432
迟	-3433
迷	-3434
逆	-3435
透	-3436
逝	-3437
逸	-3438
逾	-3439
遮	-3440
遵	-3441
郎	-3442
鎏	-3443
针	-3444
铃	-3445
铅	-3446
铸	-3447
闷	-3448
阐	-3449
阵	-3450
阻	-3451
险	-3452
雕	-3453
雾	-3454
页	-3455
须	-3456
颗	-3457
飘	-3458
餐	-3459
饭	-3460
饼	-3461
馅	-3462
驻	-3463
鳍	-3464
鳞	-3465
鹊	-3466
黄	-3467
鼎	-3468
6	-3469
B	-3470
G	-3471
Q	-3472
R	-3473
T	-3474
Z	-3475
a	-3476
b	-3477
u	-3478
v	-3479
z	-3480
“	-3481
”	-3482
↖	-3483
↙	-3484
└	-3485
┘	-3486
┬	-3487
专	-3488
丛	-3489
丞	-3490
丢	-3491
丧	-3492
丰	-3493
乖	-3494
亏	-3495
井	-3496
亘	-3497
介	-3498
仑	-3499
仓	-3500
伙	-3501
佳	-3502
促	-3503
俩	-3504
俭	-3505
倒	-3506
倘	-3507
偈	-3508
偎	-3509
偕	-3510
傍	-3511
傲	-3512
儆	-3513
兄	-3514
充	-3515
兜	-3516
兴	-3517
冒	-3518
冕	-3519
冠	-3520
凑	-3521
函	-3522
凿	-3523
刍	-3524
刷	-3525
剑	-3526
剪	-3527
割	-3528
劣	-3529
励	-3530
劲	-3531
勉	-3532
勤	-3533
匣	-3534
卑	-3535
厅	-3536
厚	-3537
厨	-3538
厮	-3539
叉	-3540
叮	-3541
司	-3542
吝	-3543
吟	-3544
咎	-3545
咏	-3546
咫	-3547
咯	-3548
唆	-3549
唇	-3550
唔	-3551
售	-3552
啄	-3553
啸	-3554
啼	-3555
喊	-3556
嗤	-3557
嘱	-3558
嘴	-3559
噱	-3560
嚎	-3561
嚓	-3562
囚	-3563
团	-3564
园	-3565
围	-3566
圈	-3567
垂	-3568
垢	-3569
埙	-3570
塞	-3571
塾	-3572
士	-3573
壳	-3574
夏	-3575
夕	-3576
她	-3577
妆	-3578
妒	-3579
姊	-3580
姝	-3581
娇	-3582
娘	-3583
婉	-3584
婪	-3585
媒	-3586
媛	-3587
嫉	-3588
嫌	-3589
嫒	-3590
孢	-3591
孱	-3592
宗	-3593
宝	-3594
宦	-3595
宫	-3596
宴	-3597
富	-3598
寐	-3599
寝	-3600
寡	-3601
尝	-3602
尤	-3603
尼	-3604
屈	-3605
屋	-3606
屏	-3607
崇	-3608
崖	-3609
川	-3610
巨	-3611
帕	-3612
幅	-3613
幕	-3614
庶	-3615
廊	-3616
弄	-3617
弊	-3618
张	-3619
彪	-3620
彷	-3621
很	-3622
徨	-3623
徽	-3624
忠	-3625
怜	-3626
怠	-3627
怡	-3628
急	-3629
怵	-3630
恕	-3631
恤	-3632
悍	-3633
悖	-3634
惇	-3635
惋	-3636
惨	-3637
惩	-3638
惫	-3639
惰	-3640
愧	-3641
愫	-3642
慎	-3643
慑	-3644
憧	-3645
憬	-3646
戴	-3647
房	-3648
扎	-3649
扩	-3650
扯	-3651
找	-3652
把	-3653
抖	-3654
抛	-3655
拌	-3656
拐	-3657
拒	-3658
拔	-3659
拖	-3660
拗	-3661
拘	-3662
拜	-3663
拨	-3664
按	-3665
损	-3666
掂	-3667
掠	-3668
掸	-3669
搀	-3670
搁	-3671
搅	-3672
搜	-3673
摇	-3674
摧	-3675
撑	-3676
撞	-3677
擎	-3678
擦	-3679
敛	-3680
敢	-3681
斗	-3682
日	-3683
昏	-3684
昼	-3685
晚	-3686
晦	-3687
暇	-3688
曙	-3689
朋	-3690
朦	-3691
朵	-3692
杆	-3693
材	-3694
束	-3695
枚	-3696
枢	-3697
栋	-3698
栖	-3699
栗	-3700
桅	-3701
档	-3702
梳	-3703
棘	-3704
森	-3705
楚	-3706
榷	-3707
槛	-3708
槽	-3709
檀	-3710
欠	-3711
款	-3712
歇	-3713
歧	-3714
殇	-3715
殉	-3716
殊	-3717
殚	-3718
氏	-3719
氙	-3720
氛	-3721
氢	-3722
汹	-3723
沛	-3724
沸	-3725
泌	-3726
泛	-3727
泪	-3728
泰	-3729
泵	-3730
洋	-3731
洽	-3732
浃	-3733
浅	-3734
浆	-3735
浇	-3736
浊	-3737
浓	-3738
浸	-3739
涎	-3740
涓	-3741
涛	-3742
深	-3743
渲	-3744
湮	-3745
溶	-3746
溺	-3747
滥	-3748
漾	-3749
潘	-3750
潮	-3751
激	-3752
瀑	-3753
灸	-3754
炫	-3755
烈	-3756
烤	-3757
煌	-3758
熄	-3759
熏	-3760
熙	-3761
熟	-3762
熵	-3763
爻	-3764
爽	-3765
牧	-3766
牲	-3767
牺	-3768
状	-3769
狙	-3770
狞	-3771
狰	-3772
猛	-3773
猜	-3774
猥	-3775
献	-3776
玷	-3777
珀	-3778
琢	-3779
琴	-3780
瑷	-3781
瓶	-3782
疏	-3783
疚	-3784
痴	-3785
瘁	-3786
瘢	-3787
瘤	-3788
瘾	-3789
癌	-3790
盆	-3791
监	-3792
盒	-3793
盘	-3794
眩	-3795
睑	-3796
瞌	-3797
瞒	-3798
矗	-3799
矫	-3800
码	-3801
砂	-3802
砍	-3803
砸	-3804
础	-3805
硬	-3806
碰	-3807
碳	-3808
磊	-3809
磋	-3810
磨	-3811
磷	-3812
祉	-3813
票	-3814
秀	-3815
秽	-3816
稍	-3817
穆	-3818
窃	-3819
窟	-3820
窦	-3821
竭	-3822
竹	-3823
笔	-3824
笙	-3825
笨	-3826
筋	-3827
筛	-3828
箱	-3829
籍	-3830
糊	-3831
紊	-3832
紧	-3833
紫	-3834
累	-3835
絮	-3836
纤	-3837
纬	-3838
纲	-3839
绊	-3840
绛	-3841
绽	-3842
缄	-3843
缈	-3844
缥	-3845
罄	-3846
羁	-3847
羔	-3848
翻	-3849
考	-3850
耍	-3851
耽	-3852
聆	-3853
聚	-3854
肃	-3855
肥	-3856
肯	-3857
肺	-3858
肿	-3859
胁	-3860
胃	-3861
胆	-3862
胖	-3863
胧	-3864
胸	-3865
脐	-3866
脑	-3867
腑	-3868
腔	-3869
腕	-3870
腥	-3871
膨	-3872
臂	-3873
芊	-3874
芜	-3875
芽	-3876
苟	-3877
茧	-3878
荆	-3879
荐	-3880
荒	-3881
荣	-3882
药	-3883
莖	-3884
莹	-3885
菊	-3886
菜	-3887
菩	-3888
萌	-3889
萧	-3890
蔓	-3891
蔷	-3892
薇	-3893
藕	-3894
虎	-3895
虐	-3896
虫	-3897
虾	-3898
螺	-3899
蠕	-3900
衙	-3901
衬	-3902
裕	-3903
裟	-3904
裤	-3905
裱	-3906
裸	-3907
褓	-3908
襁	-3909
襢	-3910
誉	-3911
订	-3912
让	-3913
讳	-3914
诓	-3915
试	-3916
诠	-3917
诧	-3918
谊	-3919
谏	-3920
谕	-3921
谦	-3922
谨	-3923
谭	-3924
谴	-3925
贪	-3926
贴	-3927
贷	-3928
贿	-3929
赂	-3930
赌	-3931
赤	-3932
赫	-3933
趾	-3934
跃	-3935
跑	-3936
跛	-3937
跟	-3938
跨	-3939
蹈	-3940
躬	-3941
躺	-3942
轻	-3943
辈	-3944
辐	-3945
输	-3946
迈	-3947
连	-3948
迭	-3949
迸	-3950
逃	-3951
逛	-3952
逞	-3953
逢	-3954
遐	-3955
邮	-3956
郑	-3957
野	-3958
釜	-3959
鉴	-3960
銮	-3961
钥	-3962
钦	-3963
铁	-3964
铂	-3965
锁	-3966
锥	-3967
镀	-3968
镫	-3969
镶	-3970
闲	-3971
闺	-3972
阂	-3973
阉	-3974
阔	-3975
阖	-3976
防	-3977
陆	-3978
陈	-3979
陋	-3980
陶	-3981
隘	-3982
隙	-3983
集	-3984
雷	-3985
霓	-3986
革	-3987
鞠	-3988
韬	-3989
顶	-3990
顽	-3991
颇	-3992
颚	-3993
